{
  "version": "1.0",
  "truncation": null,
  "padding": null,
  "added_tokens": [
    {
      "id": 0,
      "content": "<|endoftext|>",
      "single_word": false,
      "lstrip": false,
      "rstrip": false,
      "normalized": false,
      "special": true
    },
    {
      "id": 1,
      "content": "<pad>",
      "single_word": false,
      "lstrip": false,
      "rstrip": false,
      "normalized": false,
      "special": true
    },
    {
      "id": 2,
      "content": "<unk>",
      "single_word": false,
      "lstrip": false,
      "rstrip": false,
      "normalized": false,
      "special": true
    },
    {
      "id": 3,
      "content": "<s>",
      "single_word": false,
      "lstrip": false,
      "rstrip": false,
      "normalized": false,
      "special": true
    },
    {
      "id": 4,
      "content": "</s>",
      "single_word": false,
      "lstrip": false,
      "rstrip": false,
      "normalized": false,
      "special": true
    },
    {
      "id": 5,
      "content": "<mask>",
      "single_word": false,
      "lstrip": false,
      "rstrip": false,
      "normalized": false,
      "special": true
    },
    {
      "id": 6,
      "content": "<|pad|>",
      "single_word": false,
      "lstrip": false,
      "rstrip": false,
      "normalized": false,
      "special": true
    }
  ],
  "normalizer": null,
  "pre_tokenizer": {
    "type": "ByteLevel",
    "add_prefix_space": false,
    "trim_offsets": true,
    "use_regex": true
  },
  "post_processor": {
    "type": "ByteLevel",
    "add_prefix_space": true,
    "trim_offsets": false,
    "use_regex": true
  },
  "decoder": {
    "type": "ByteLevel",
    "add_prefix_space": true,
    "trim_offsets": true,
    "use_regex": true
  },
  "model": {
    "type": "BPE",
    "dropout": null,
    "unk_token": null,
    "continuing_subword_prefix": null,
    "end_of_word_suffix": null,
    "fuse_unk": false,
    "byte_fallback": false,
    "ignore_merges": false,
    "vocab": {
      "<|endoftext|>": 0,
      "<pad>": 1,
      "<unk>": 2,
      "<s>": 3,
      "</s>": 4,
      "<mask>": 5,
      "<|pad|>": 6,
      "!": 7,
      "\"": 8,
      "#": 9,
      "$": 10,
      "%": 11,
      "&": 12,
      "'": 13,
      "(": 14,
      ")": 15,
      "*": 16,
      "+": 17,
      ",": 18,
      "-": 19,
      ".": 20,
      "/": 21,
      "0": 22,
      "1": 23,
      "2": 24,
      "3": 25,
      "4": 26,
      "5": 27,
      "6": 28,
      "7": 29,
      "8": 30,
      "9": 31,
      ":": 32,
      ";": 33,
      "<": 34,
      "=": 35,
      ">": 36,
      "?": 37,
      "@": 38,
      "A": 39,
      "B": 40,
      "C": 41,
      "D": 42,
      "E": 43,
      "F": 44,
      "G": 45,
      "H": 46,
      "I": 47,
      "J": 48,
      "K": 49,
      "L": 50,
      "M": 51,
      "N": 52,
      "O": 53,
      "P": 54,
      "Q": 55,
      "R": 56,
      "S": 57,
      "T": 58,
      "U": 59,
      "V": 60,
      "W": 61,
      "X": 62,
      "Y": 63,
      "Z": 64,
      "[": 65,
      "\\": 66,
      "]": 67,
      "^": 68,
      "_": 69,
      "`": 70,
      "a": 71,
      "b": 72,
      "c": 73,
      "d": 74,
      "e": 75,
      "f": 76,
      "g": 77,
      "h": 78,
      "i": 79,
      "j": 80,
      "k": 81,
      "l": 82,
      "m": 83,
      "n": 84,
      "o": 85,
      "p": 86,
      "q": 87,
      "r": 88,
      "s": 89,
      "t": 90,
      "u": 91,
      "v": 92,
      "w": 93,
      "x": 94,
      "y": 95,
      "z": 96,
      "{": 97,
      "|": 98,
      "}": 99,
      "~": 100,
      "¡": 101,
      "¢": 102,
      "£": 103,
      "¤": 104,
      "¥": 105,
      "¦": 106,
      "§": 107,
      "¨": 108,
      "©": 109,
      "ª": 110,
      "«": 111,
      "¬": 112,
      "®": 113,
      "¯": 114,
      "°": 115,
      "±": 116,
      "²": 117,
      "³": 118,
      "´": 119,
      "µ": 120,
      "¶": 121,
      "·": 122,
      "¸": 123,
      "¹": 124,
      "º": 125,
      "»": 126,
      "¼": 127,
      "½": 128,
      "¾": 129,
      "¿": 130,
      "À": 131,
      "Á": 132,
      "Â": 133,
      "Ã": 134,
      "Ä": 135,
      "Å": 136,
      "Æ": 137,
      "Ç": 138,
      "È": 139,
      "É": 140,
      "Ê": 141,
      "Ë": 142,
      "Ì": 143,
      "Í": 144,
      "Î": 145,
      "Ï": 146,
      "Ð": 147,
      "Ñ": 148,
      "Ò": 149,
      "Ó": 150,
      "Ô": 151,
      "Õ": 152,
      "Ö": 153,
      "×": 154,
      "Ø": 155,
      "Ù": 156,
      "Ú": 157,
      "Û": 158,
      "Ü": 159,
      "Ý": 160,
      "Þ": 161,
      "ß": 162,
      "à": 163,
      "á": 164,
      "â": 165,
      "ã": 166,
      "ä": 167,
      "å": 168,
      "æ": 169,
      "ç": 170,
      "è": 171,
      "é": 172,
      "ê": 173,
      "ë": 174,
      "ì": 175,
      "í": 176,
      "î": 177,
      "ï": 178,
      "ð": 179,
      "ñ": 180,
      "ò": 181,
      "ó": 182,
      "ô": 183,
      "õ": 184,
      "ö": 185,
      "÷": 186,
      "ø": 187,
      "ù": 188,
      "ú": 189,
      "û": 190,
      "ü": 191,
      "ý": 192,
      "þ": 193,
      "ÿ": 194,
      "Ā": 195,
      "ā": 196,
      "Ă": 197,
      "ă": 198,
      "Ą": 199,
      "ą": 200,
      "Ć": 201,
      "ć": 202,
      "Ĉ": 203,
      "ĉ": 204,
      "Ċ": 205,
      "ċ": 206,
      "Č": 207,
      "č": 208,
      "Ď": 209,
      "ď": 210,
      "Đ": 211,
      "đ": 212,
      "Ē": 213,
      "ē": 214,
      "Ĕ": 215,
      "ĕ": 216,
      "Ė": 217,
      "ė": 218,
      "Ę": 219,
      "ę": 220,
      "Ě": 221,
      "ě": 222,
      "Ĝ": 223,
      "ĝ": 224,
      "Ğ": 225,
      "ğ": 226,
      "Ġ": 227,
      "ġ": 228,
      "Ģ": 229,
      "ģ": 230,
      "Ĥ": 231,
      "ĥ": 232,
      "Ħ": 233,
      "ħ": 234,
      "Ĩ": 235,
      "ĩ": 236,
      "Ī": 237,
      "ī": 238,
      "Ĭ": 239,
      "ĭ": 240,
      "Į": 241,
      "į": 242,
      "İ": 243,
      "ı": 244,
      "Ĳ": 245,
      "ĳ": 246,
      "Ĵ": 247,
      "ĵ": 248,
      "Ķ": 249,
      "ķ": 250,
      "ĸ": 251,
      "Ĺ": 252,
      "ĺ": 253,
      "Ļ": 254,
      "ļ": 255,
      "Ľ": 256,
      "ľ": 257,
      "Ŀ": 258,
      "ŀ": 259,
      "Ł": 260,
      "ł": 261,
      "Ń": 262,
      "Ġt": 263,
      "he": 264,
      "Ġa": 265,
      "in": 266,
      "Ġthe": 267,
      "er": 268,
      "Ġo": 269,
      "re": 270,
      "an": 271,
      "Ġs": 272,
      "Ġw": 273,
      "is": 274,
      "Ġc": 275,
      "on": 276,
      "es": 277,
      "at": 278,
      "en": 279,
      "ed": 280,
      "Ġb": 281,
      "or": 282,
      "Ġan": 283,
      "it": 284,
      "Ġof": 285,
      "al": 286,
      "ar": 287,
      "Ġm": 288,
      "Ġp": 289,
      "Ġf": 290,
      "Ġin": 291,
      "as": 292,
      "Ġand": 293,
      "ic": 294,
      "ou": 295,
      "ing": 296,
      "le": 297,
      "om": 298,
      "Ġh": 299,
      "Ġto": 300,
      "Ġd": 301,
      "Ġis": 302,
      "ĠT": 303,
      "Ġl": 304,
      "ion": 305,
      "Ġth": 306,
      "us": 307,
      "Ġn": 308,
      "ent": 309,
      "il": 310,
      "Ġbe": 311,
      "am": 312,
      "ĠS": 313,
      "Ġe": 314,
      "ro": 315,
      "st": 316,
      "ĠA": 317,
      "Ġg": 318,
      "ve": 319,
      "ĠThe": 320,
      "ol": 321,
      "ot": 322,
      "ĠI": 323,
      "ad": 324,
      "ver": 325,
      "et": 326,
      "Ġ1": 327,
      "Ġare": 328,
      "ac": 329,
      "ly": 330,
      "Ġre": 331,
      "im": 332,
      "Ġwas": 333,
      "id": 334,
      "ow": 335,
      "ĠC": 336,
      "Ġon": 337,
      "Ġ\"": 338,
      "op": 339,
      "her": 340,
      "ay": 341,
      "ir": 342,
      "ĠM": 343,
      "Ġfor": 344,
      "ut": 345,
      "ur": 346,
      "ig": 347,
      "Ġst": 348,
      "ec": 349,
      "el": 350,
      "Ġal": 351,
      "Ġ(": 352,
      "Ġthat": 353,
      "ter": 354,
      "un": 355,
      "ĠH": 356,
      "ĠB": 357,
      "oun": 358,
      "Ġwh": 359,
      "Ġas": 360,
      "ul": 361,
      "th": 362,
      "Ġor": 363,
      "and": 364,
      "Ġit": 365,
      "Ġmo": 366,
      "ch": 367,
      "ation": 368,
      "ĠE": 369,
      "ĠP": 370,
      "ts": 371,
      "ith": 372,
      "all": 373,
      "ers": 374,
      "ies": 375,
      "ce": 376,
      "um": 377,
      "se": 378,
      "Ġwith": 379,
      "Ġfr": 380,
      "ain": 381,
      "if": 382,
      "em": 383,
      "Ġhe": 384,
      "ag": 385,
      "ĠG": 386,
      "ke": 387,
      "Ġby": 388,
      "Ġr": 389,
      "ap": 390,
      "Ġus": 391,
      "ĠW": 392,
      "ld": 393,
      "tr": 394,
      "od": 395,
      "ĠR": 396,
      "ĠF": 397,
      "Ġfrom": 398,
      "Ġ2": 399,
      "Ġ19": 400,
      "est": 401,
      "ave": 402,
      "eop": 403,
      "ome": 404,
      "ĠN": 405,
      "eople": 406,
      "The": 407,
      "ther": 408,
      "00": 409,
      "ĠL": 410,
      "ill": 411,
      "ĠD": 412,
      "Ġcom": 413,
      "ct": 414,
      "Ġnot": 415,
      "'s": 416,
      "ity": 417,
      "art": 418,
      "ia": 419,
      "so": 420,
      "any": 421,
      "Ġpeople": 422,
      "ame": 423,
      "Ġwor": 424,
      "ich": 425,
      "ist": 426,
      "Ġat": 427,
      "iv": 428,
      "Ġcon": 429,
      "Ġcan": 430,
      "ĠIt": 431,
      "res": 432,
      "os": 433,
      "ĠJ": 434,
      "igh": 435,
      "ĠIn": 436,
      "ate": 437,
      "Ġpl": 438,
      "Ġpro": 439,
      "Ġhave": 440,
      "ian": 441,
      "Ġch": 442,
      "ear": 443,
      "Ġsu": 444,
      "ĠU": 445,
      "Ġk": 446,
      "Ġex": 447,
      "Ġsp": 448,
      "ud": 449,
      "Ġalso": 450,
      "Ġhas": 451,
      "ere": 452,
      "ive": 453,
      "ant": 454,
      "Ġv": 455,
      "Ġbec": 456,
      "ĠO": 457,
      "gh": 458,
      "ang": 459,
      "ab": 460,
      "Ġthey": 461,
      "Ġy": 462,
      "Ġwere": 463,
      "Ġse": 464,
      "Ġwhich": 465,
      "Ġcall": 466,
      "ak": 467,
      "ber": 468,
      "end": 469,
      "ew": 470,
      "Ġle": 471,
      "Ġsh": 472,
      "Ġother": 473,
      "ally": 474,
      "ong": 475,
      "qu": 476,
      "Ġhis": 477,
      "oc": 478,
      "Ġtr": 479,
      "Ġcalled": 480,
      "Ġde": 481,
      "ort": 482,
      "ĠTh": 483,
      "ish": 484,
      "Ġun": 485,
      "ans": 486,
      "ound": 487,
      "ast": 488,
      "Ġab": 489,
      "out": 490,
      "ess": 491,
      "Ġwhe": 492,
      "ell": 493,
      "ough": 494,
      "ĠK": 495,
      "ip": 496,
      "ard": 497,
      "aus": 498,
      "ment": 499,
      "ight": 500,
      "ĠHe": 501,
      "ore": 502,
      "ide": 503,
      "Ġmany": 504,
      "our": 505,
      "Ġtheir": 506,
      "ial": 507,
      "ure": 508,
      "very": 509,
      "land": 510,
      "Ġcoun": 511,
      "ade": 512,
      "up": 513,
      "Ġbut": 514,
      "Ġone": 515,
      "rit": 516,
      "fer": 517,
      "ge": 518,
      "der": 519,
      "ok": 520,
      "Ġgo": 521,
      "ous": 522,
      "ep": 523,
      "ater": 524,
      "Ġar": 525,
      "ect": 526,
      "og": 527,
      "ĠUn": 528,
      "ary": 529,
      "Ġwho": 530,
      "Ġused": 531,
      "ine": 532,
      "ĠSt": 533,
      "Ġyear": 534,
      "ĠCh": 535,
      "\".": 536,
      "av": 537,
      "ĠThis": 538,
      "Ġhad": 539,
      "ions": 540,
      "Ġall": 541,
      "ould": 542,
      "ated": 543,
      "ake": 544,
      ").": 545,
      "Ġmost": 546,
      "ical": 547,
      "mer": 548,
      "own": 549,
      "ub": 550,
      "per": 551,
      "Ġcountr": 552,
      "ib": 553,
      "ause": 554,
      "ime": 555,
      "irst": 556,
      "Ġme": 557,
      "to": 558,
      "Ġcomp": 559,
      "Ġdo": 560,
      "cl": 561,
      "age": 562,
      "ike": 563,
      "one": 564,
      "ie": 565,
      "ates": 566,
      "Ġthis": 567,
      "ĠThey": 568,
      "ack": 569,
      "ings": 570,
      "Ġcl": 571,
      "In": 572,
      "pp": 573,
      "Ġpart": 574,
      "Ġmade": 575,
      "are": 576,
      "Ġabout": 577,
      "Ġfirst": 578,
      "Ġgr": 579,
      "Ġmore": 580,
      "fter": 581,
      "iz": 582,
      "ost": 583,
      "Ġsome": 584,
      "ied": 585,
      "Ġdif": 586,
      "ree": 587,
      "ass": 588,
      "ind": 589,
      "ten": 590,
      "ire": 591,
      "ĠV": 592,
      "ĠĊ": 593,
      "wo": 594,
      "ng": 595,
      "Ġ20": 596,
      "uc": 597,
      "Ġits": 598,
      "amp": 599,
      "les": 600,
      "ited": 601,
      "Ġdiffer": 602,
      "ach": 603,
      "Ġso": 604,
      "Ġthem": 605,
      "âĢ": 606,
      "iver": 607,
      "ace": 608,
      "ue": 609,
      "\",": 610,
      "erm": 611,
      "Ġkn": 612,
      "ord": 613,
      "Ġim": 614,
      "Ġthere": 615,
      "Ġdis": 616,
      "Ġlike": 617,
      "Ġwhen": 618,
      "Ġen": 619,
      "act": 620,
      "Ġinto": 621,
      "Ġthan": 622,
      "aw": 623,
      "clud": 624,
      "),": 625,
      "Ġj": 626,
      "Ġvery": 627,
      "pe": 628,
      "ond": 629,
      "Ġbecause": 630,
      "ren": 631,
      "ice": 632,
      "Ġwork": 633,
      "Ġne": 634,
      "Ġdifferent": 635,
      "ays": 636,
      "Ġtwo": 637,
      "Ġtime": 638,
      "Ġinclud": 639,
      "Ġ200": 640,
      "Ġag": 641,
      "ons": 642,
      "ust": 643,
      "orm": 644,
      "Ġele": 645,
      "ild": 646,
      "Ġpr": 647,
      "Ġlar": 648,
      "Ġad": 649,
      "wn": 650,
      "cc": 651,
      "ult": 652,
      "Ġcont": 653,
      "Ġform": 654,
      "Ġ18": 655,
      "tern": 656,
      "Ġwe": 657,
      "ood": 658,
      "ose": 659,
      "ence": 660,
      "Ġro": 661,
      "Ġup": 662,
      "als": 663,
      "omet": 664,
      "ance": 665,
      "ook": 666,
      "Ġcomm": 667,
      "ory": 668,
      "ĠEng": 669,
      "Ġcity": 670,
      "meric": 671,
      "Ġyears": 672,
      "ually": 673,
      "Ġsy": 674,
      "ations": 675,
      "Ġbeen": 676,
      "ĠUnited": 677,
      "ci": 678,
      "ry": 679,
      "een": 680,
      "old": 681,
      "Ġout": 682,
      "Ġcent": 683,
      "Ġmake": 684,
      "orn": 685,
      "ks": 686,
      "Ġev": 687,
      "imes": 688,
      "reat": 689,
      "port": 690,
      "ĠAmeric": 691,
      "pl": 692,
      "Ġuse": 693,
      "Ġsuch": 694,
      "ors": 695,
      "Ġ3": 696,
      "Ġonly": 697,
      "low": 698,
      "ism": 699,
      "ff": 700,
      "Ġbecame": 701,
      "Ġpop": 702,
      "Ġbet": 703,
      "ne": 704,
      "pt": 705,
      "te": 706,
      "Ġafter": 707,
      "Ġworld": 708,
      "ile": 709,
      "Ġte": 710,
      "uring": 711,
      "Ġmay": 712,
      "ics": 713,
      "Ġsm": 714,
      "Ġplay": 715,
      "angu": 716,
      "ident": 717,
      "ĠAl": 718,
      "ite": 719,
      "Ġover": 720,
      "ĠAn": 721,
      "ens": 722,
      "hen": 723,
      "ra": 724,
      "erson": 725,
      "Ġmus": 726,
      "outh": 727,
      "Ġlangu": 728,
      "Ġpopul": 729,
      "Ġword": 730,
      "ign": 731,
      "ubl": 732,
      "Ġcountry": 733,
      "Ġknown": 734,
      "Ġfam": 735,
      "vern": 736,
      "Ġnum": 737,
      "ved": 738,
      "Ġcol": 739,
      "hed": 740,
      "ath": 741,
      "oup": 742,
      "ug": 743,
      "Ġoften": 744,
      "Âł": 745,
      "ĠAr": 746,
      "ric": 747,
      "ob": 748,
      "Ġpres": 749,
      "Ġwould": 750,
      "Ġrel": 751,
      "Ġbl": 752,
      "other": 753,
      "Ġnew": 754,
      "ase": 755,
      "Ġperson": 756,
      "Ġexamp": 757,
      "Ġpre": 758,
      "ft": 759,
      "Ġwrit": 760,
      "Ġher": 761,
      "Ġwhere": 762,
      "Ġbu": 763,
      "gan": 764,
      "ĠStates": 765,
      "Ġper": 766,
      "ĠFr": 767,
      "Ġco": 768,
      "Ġsmall": 769,
      "ury": 770,
      "ces": 771,
      "ists": 772,
      "Ġ201": 773,
      "vel": 774,
      "rough": 775,
      "Ġres": 776,
      "Ġcountries": 777,
      "Ġwill": 778,
      "oth": 779,
      "Ġchang": 780,
      "ict": 781,
      "uro": 782,
      "Ġmet": 783,
      "Ġser": 784,
      "ween": 785,
      "io": 786,
      "orth": 787,
      "ition": 788,
      "ents": 789,
      "ail": 790,
      "gest": 791,
      "ower": 792,
      "ased": 793,
      "hes": 794,
      "Ġoff": 795,
      "fore": 796,
      "ount": 797,
      "ational": 798,
      "Ġdr": 799,
      "Ġsame": 800,
      "Ġget": 801,
      "ph": 802,
      "ark": 803,
      "iet": 804,
      "ĠThere": 805,
      "Ġgovern": 806,
      "Ġact": 807,
      "ĠSome": 808,
      "Ġstr": 809,
      "ars": 810,
      "ife": 811,
      "ever": 812,
      "ince": 813,
      "ick": 814,
      "Ġqu": 815,
      "Ġthese": 816,
      "Ġph": 817,
      "Ġrec": 818,
      "stem": 819,
      "Ġbetween": 820,
      "Ġhim": 821,
      "Ġstart": 822,
      "Ġexample": 823,
      "lish": 824,
      "ĠY": 825,
      "Ġspec": 826,
      "uch": 827,
      "ital": 828,
      "Ġpol": 829,
      "Ġlong": 830,
      "ities": 831,
      "ix": 832,
      "Ġpo": 833,
      "ton": 834,
      "Ġcap": 835,
      "Ġusually": 836,
      "Ġind": 837,
      "Ġgroup": 838,
      "akes": 839,
      "able": 840,
      "olog": 841,
      "Ġstate": 842,
      "Ġfound": 843,
      "ĠEuro": 844,
      "Ġ199": 845,
      "Ġapp": 846,
      "ction": 847,
      "ember": 848,
      "Ġno": 849,
      "000": 850,
      "Ġdes": 851,
      "Ġthings": 852,
      "Ġear": 853,
      "Ġsomet": 854,
      "Ġhow": 855,
      "Ġwater": 856,
      "Ġ4": 857,
      "ual": 858,
      "ov": 859,
      "Ġliv": 860,
      "Ġmusic": 861,
      "ines": 862,
      "ather": 863,
      "Ġmov": 864,
      "ĠEnglish": 865,
      "ĠSp": 866,
      "Ġhel": 867,
      "Ġthen": 868,
      "ys": 869,
      "Ġend": 870,
      "Ġbel": 871,
      "urn": 872,
      "ublic": 873,
      "ĠEurope": 874,
      "Ġname": 875,
      "Ġsa": 876,
      "Ġdid": 877,
      "ĠMar": 878,
      "Ġsec": 879,
      "ames": 880,
      "Ġcre": 881,
      "oh": 882,
      "row": 883,
      "ress": 884,
      "Ġdec": 885,
      "Ġfl": 886,
      "Ġstud": 887,
      "Ġty": 888,
      "ĠGerm": 889,
      "Ġimport": 890,
      "oman": 891,
      "Ġagain": 892,
      "Ġpar": 893,
      "Ġunder": 894,
      "ink": 895,
      "Ġmain": 896,
      "Ġgovernment": 897,
      "Ġany": 898,
      "Ġbr": 899,
      "ool": 900,
      "Ġsystem": 901,
      "Ġnumber": 902,
      "ians": 903,
      "Ġplan": 904,
      "ah": 905,
      "form": 906,
      "Ġprod": 907,
      "ĠNew": 908,
      "Ġthrough": 909,
      "Ġgen": 910,
      "Ġ5": 911,
      "Ġcommon": 912,
      "Ġam": 913,
      "Ġimportant": 914,
      "int": 915,
      "ily": 916,
      "ll": 917,
      "ages": 918,
      "hem": 919,
      "str": 920,
      "ters": 921,
      "Ġcar": 922,
      "anc": 923,
      "Ġlanguage": 924,
      "Ġhelp": 925,
      "get": 926,
      "gr": 927,
      "Ġreg": 928,
      "Ġshow": 929,
      "ove": 930,
      "Ġthough": 931,
      "Ġwell": 932,
      "br": 933,
      "Ġwar": 934,
      "app": 935,
      "ward": 936,
      "Ġfe": 937,
      "ustr": 938,
      "Ġinv": 939,
      "til": 940,
      "Ġsur": 941,
      "Ġown": 942,
      "ĠThese": 943,
      "ures": 944,
      "ium": 945,
      "Ġold": 946,
      "ution": 947,
      "ĠFor": 948,
      "Ġif": 949,
      "Ġaround": 950,
      "ĠBrit": 951,
      "Ġshe": 952,
      "ivers": 953,
      "ative": 954,
      "Ġduring": 955,
      "Ġcould": 956,
      "ful": 957,
      "Ġbig": 958,
      "Ġmeans": 959,
      "Ġcentury": 960,
      "gy": 961,
      "illion": 962,
      "ious": 963,
      "Ġob": 964,
      "ĠAs": 965,
      "Ġ197": 966,
      "ins": 967,
      "Ġthree": 968,
      "ale": 969,
      "Ġway": 970,
      "cient": 971,
      "Ġwhat": 972,
      "ĠAmerican": 973,
      "Ġac": 974,
      "hing": 975,
      "Ġsc": 976,
      "Ġhum": 977,
      "ger": 978,
      "Ġmuch": 979,
      "Ġevery": 980,
      "oy": 981,
      "Ġlarge": 982,
      "Ġland": 983,
      "ctr": 984,
      "ĠKing": 985,
      "its": 986,
      "ody": 987,
      "Ġmon": 988,
      "Ġlive": 989,
      "rist": 990,
      "uss": 991,
      "aking": 992,
      "Ġ198": 993,
      "Ġeach": 994,
      "red": 995,
      "iss": 996,
      "Ġchild": 997,
      "Ġlater": 998,
      "Ġcons": 999,
      "ains": 1000,
      "bers": 1001,
      "ble": 1002,
      "ina": 1003,
      "ty": 1004,
      "Ġsaid": 1005,
      "ting": 1006,
      "mp": 1007,
      "ird": 1008,
      "Ġbelie": 1009,
      "tle": 1010,
      "Ġanim": 1011,
      "âĢĵ": 1012,
      "ert": 1013,
      "Ġrele": 1014,
      "ĠInd": 1015,
      "ature": 1016,
      "onom": 1017,
      "Ġsim": 1018,
      "ĠWar": 1019,
      "Ġsecond": 1020,
      "ik": 1021,
      "Ġspe": 1022,
      "ĠIs": 1023,
      "way": 1024,
      "Ġcapital": 1025,
      "ects": 1026,
      "Ġbeing": 1027,
      "Ġbefore": 1028,
      "uary": 1029,
      "Ġsupp": 1030,
      "day": 1031,
      "amed": 1032,
      "Ġpower": 1033,
      "Ġatt": 1034,
      "owever": 1035,
      "chool": 1036,
      "ier": 1037,
      "Ġ6": 1038,
      "ific": 1039,
      "Ġlife": 1040,
      "ĠLe": 1041,
      "Ġchar": 1042,
      "Ġsub": 1043,
      "Ġarea": 1044,
      "Ġstarted": 1045,
      "arr": 1046,
      "eral": 1047,
      "ork": 1048,
      "Ġman": 1049,
      "19": 1050,
      "the": 1051,
      "Ġinclude": 1052,
      "Ġpopular": 1053,
      "orld": 1054,
      "ĠWhen": 1055,
      "Ġke": 1056,
      "ĠAf": 1057,
      "ural": 1058,
      "Ġwant": 1059,
      "Ġuntil": 1060,
      "au": 1061,
      "Ġbook": 1062,
      "ollow": 1063,
      "ula": 1064,
      "iam": 1065,
      "Ġlaw": 1066,
      "dom": 1067,
      "Ġstill": 1068,
      "Ġelectr": 1069,
      "ex": 1070,
      "vers": 1071,
      "ible": 1072,
      "ĠAt": 1073,
      "Ġ196": 1074,
      "There": 1075,
      "iel": 1076,
      "Ġ'": 1077,
      "Ġdied": 1078,
      "ĠShe": 1079,
      "Ġlead": 1080,
      "ĠRe": 1081,
      "Ġmean": 1082,
      "co": 1083,
      "hip": 1084,
      "ĠMany": 1085,
      "els": 1086,
      "Ġfamous": 1087,
      "Ġ17": 1088,
      "Ġrem": 1089,
      "Ġadd": 1090,
      "ĠChrist": 1091,
      "az": 1092,
      "ax": 1093,
      "Ġdoes": 1094,
      "Ġneed": 1095,
      "ĠWorld": 1096,
      "ĠHowever": 1097,
      "uct": 1098,
      "Ġinf": 1099,
      "thern": 1100,
      "Ġfour": 1101,
      "Ġlargest": 1102,
      "ĠPr": 1103,
      "bum": 1104,
      "Ġeven": 1105,
      "pr": 1106,
      "ros": 1107,
      "oss": 1108,
      "ision": 1109,
      "Ġboth": 1110,
      "ĠCom": 1111,
      "Ġacc": 1112,
      "Ġ15": 1113,
      "Ġdef": 1114,
      "Ġback": 1115,
      "gen": 1116,
      "Ġsing": 1117,
      "Ġins": 1118,
      "elf": 1119,
      "amm": 1120,
      "Ġpresident": 1121,
      "Ġanother": 1122,
      "aj": 1123,
      "arth": 1124,
      "ech": 1125,
      "Ġ7": 1126,
      "Ġhigh": 1127,
      "Ġplace": 1128,
      "ĠOn": 1129,
      "ves": 1130,
      "ets": 1131,
      "ided": 1132,
      "ock": 1133,
      "Ġgood": 1134,
      "ms": 1135,
      "Ġlight": 1136,
      "Ġalbum": 1137,
      "aph": 1138,
      "Ġsoc": 1139,
      "Ġmat": 1140,
      "Ġmed": 1141,
      "Ġfollow": 1142,
      "Ġcontro": 1143,
      "air": 1144,
      "ject": 1145,
      "Ġday": 1146,
      "Ġair": 1147,
      "Ġbody": 1148,
      "Ġsometimes": 1149,
      "ĠNorth": 1150,
      "aces": 1151,
      "Ġart": 1152,
      "Ġhapp": 1153,
      "Ġinter": 1154,
      "Ġide": 1155,
      "Ġmillion": 1156,
      "Ġcomput": 1157,
      "Ġnow": 1158,
      "Ġtrans": 1159,
      "Ġincluding": 1160,
      "Ġparts": 1161,
      "ced": 1162,
      "ank": 1163,
      "ating": 1164,
      "Ġhist": 1165,
      "ĠSouth": 1166,
      "lands": 1167,
      "Ġagainst": 1168,
      "ĠQ": 1169,
      "ouse": 1170,
      "Ġnear": 1171,
      "Ġgiv": 1172,
      "Ġsever": 1173,
      "ted": 1174,
      "Ġsong": 1175,
      "Ġrep": 1176,
      "ows": 1177,
      "oot": 1178,
      "Ġschool": 1179,
      "Ġlot": 1180,
      "Ġfood": 1181,
      "Ġkind": 1182,
      "ments": 1183,
      "Ġ-": 1184,
      "Ġnamed": 1185,
      "Ġbuild": 1186,
      "Ġband": 1187,
      "ise": 1188,
      "ont": 1189,
      "Ġsl": 1190,
      "ĠEngland": 1191,
      "velop": 1192,
      "Ġcr": 1193,
      "ck": 1194,
      "cr": 1195,
      "ven": 1196,
      "oney": 1197,
      "Ġmin": 1198,
      "Ġkill": 1199,
      "ology": 1200,
      "ĠHis": 1201,
      "Ġtoget": 1202,
      "Ġtogether": 1203,
      "ning": 1204,
      "Ġ9": 1205,
      "Ġbro": 1206,
      "Ġdiv": 1207,
      "une": 1208,
      "Ġbecome": 1209,
      "Ġbegan": 1210,
      "Ġoffic": 1211,
      "ular": 1212,
      "Ġset": 1213,
      "Ġ10": 1214,
      "ues": 1215,
      "Ġmakes": 1216,
      "Ġexp": 1217,
      "rop": 1218,
      "ĠEarth": 1219,
      "Ġwhile": 1220,
      "ĠAfric": 1221,
      "Ġmil": 1222,
      "Ġmem": 1223,
      "Ġrelig": 1224,
      "Ġcame": 1225,
      "ĠRoman": 1226,
      "ohn": 1227,
      "ai": 1228,
      "inc": 1229,
      "Ġpolit": 1230,
      "Ġfew": 1231,
      "Ġseveral": 1232,
      "ially": 1233,
      "ole": 1234,
      "mb": 1235,
      "ared": 1236,
      "Ġ194": 1237,
      "Ġmove": 1238,
      "Ġdevelop": 1239,
      "ants": 1240,
      "ize": 1241,
      "ĠBritish": 1242,
      "Ġlook": 1243,
      "Ġtyp": 1244,
      "ste": 1245,
      "Ġsee": 1246,
      "Ġcell": 1247,
      "ann": 1248,
      "Ġfar": 1249,
      "ĠMost": 1250,
      "Ġ8": 1251,
      "inal": 1252,
      "ished": 1253,
      "ox": 1254,
      "ĠRep": 1255,
      "Ġborn": 1256,
      "ĠAfter": 1257,
      "Ġpopulation": 1258,
      "cy": 1259,
      "ield": 1260,
      "Ġinc": 1261,
      "Ġdown": 1262,
      "Ġrul": 1263,
      "omen": 1264,
      "ilt": 1265,
      "Ġfamily": 1266,
      "ĠSh": 1267,
      "ĠSe": 1268,
      "ĠFrance": 1269,
      "arch": 1270,
      ".\"": 1271,
      "Ġgrow": 1272,
      "ral": 1273,
      "Ġorgan": 1274,
      "Ġrun": 1275,
      "ĠZ": 1276,
      "Ġsince": 1277,
      "Ġsay": 1278,
      "ases": 1279,
      "son": 1280,
      "ĠBe": 1281,
      "Ġchildren": 1282,
      "Ġrecord": 1283,
      "Ġreleased": 1284,
      "Ġearly": 1285,
      "Ġproduc": 1286,
      "apan": 1287,
      "alk": 1288,
      "ĠJan": 1289,
      "Ġlast": 1290,
      "Ġwords": 1291,
      "ined": 1292,
      "ergy": 1293,
      "Ġcaus": 1294,
      "Ġusing": 1295,
      "Ġtimes": 1296,
      "Ġprot": 1297,
      "idd": 1298,
      "Ġthought": 1299,
      "enn": 1300,
      "urch": 1301,
      "und": 1302,
      "ams": 1303,
      "Ġcontin": 1304,
      "ones": 1305,
      "led": 1306,
      "Ġec": 1307,
      "Ġeas": 1308,
      "rench": 1309,
      "Ġ16": 1310,
      "atic": 1311,
      "ized": 1312,
      "cept": 1313,
      "Ġwon": 1314,
      "Ġmoney": 1315,
      "ajor": 1316,
      "xt": 1317,
      "ĠRuss": 1318,
      "ats": 1319,
      "Ġdep": 1320,
      "ason": 1321,
      "ered": 1322,
      "ĠII": 1323,
      "Ġsex": 1324,
      "my": 1325,
      "Ġcult": 1326,
      "Ġvar": 1327,
      "Ġdeath": 1328,
      "Ġtem": 1329,
      "ĠIf": 1330,
      "Ġwritten": 1331,
      "Ġput": 1332,
      "Ġchange": 1333,
      "20": 1334,
      "ĠCol": 1335,
      "Ġanimals": 1336,
      "Ġless": 1337,
      "ĠJapan": 1338,
      "Ġleft": 1339,
      "An": 1340,
      "Ġjust": 1341,
      "read": 1342,
      "ung": 1343,
      "ĠAmerica": 1344,
      "Ġthink": 1345,
      "epend": 1346,
      "Ġshould": 1347,
      "hest": 1348,
      "Ġsk": 1349,
      "ĠSc": 1350,
      "ĠCar": 1351,
      "Ġ195": 1352,
      "Ġsouth": 1353,
      "here": 1354,
      "ball": 1355,
      "Ġterm": 1356,
      "Ġop": 1357,
      "ope": 1358,
      "Ġcreated": 1359,
      "Ġsign": 1360,
      "Ġlet": 1361,
      "man": 1362,
      "Ġequ": 1363,
      "ĠJohn": 1364,
      "Ġproble": 1365,
      "mpire": 1366,
      "Ġtake": 1367,
      "Ġhome": 1368,
      "Ġorig": 1369,
      "Ġleg": 1370,
      "Ġformula": 1371,
      "Ġprov": 1372,
      "Ġcommun": 1373,
      "Ġlanguages": 1374,
      "ories": 1375,
      "ales": 1376,
      "alth": 1377,
      "Ġbuilt": 1378,
      "Ġtown": 1379,
      "ĠGre": 1380,
      "oms": 1381,
      "Ġenergy": 1382,
      "yd": 1383,
      "not": 1384,
      "vent": 1385,
      "rote": 1386,
      "ĠFrench": 1387,
      "ĠUnion": 1388,
      "most": 1389,
      "ober": 1390,
      "ĠAustr": 1391,
      "ross": 1392,
      "olution": 1393,
      "ocr": 1394,
      "ĠRepublic": 1395,
      "Ġpartic": 1396,
      "Ġsupport": 1397,
      "Ġaut": 1398,
      "ison": 1399,
      "orts": 1400,
      "Ġtook": 1401,
      "Ġent": 1402,
      "Ġcities": 1403,
      "Ġmaking": 1404,
      "ĠGermany": 1405,
      "Ġeconom": 1406,
      "uit": 1407,
      "Ġmajor": 1408,
      "Ġlit": 1409,
      "Ġliving": 1410,
      "Ġcur": 1411,
      "ĠGerman": 1412,
      "ept": 1413,
      "Ġstudy": 1414,
      "Ġwent": 1415,
      "ights": 1416,
      "Ġchem": 1417,
      "estern": 1418,
      "arn": 1419,
      "ĠPeople": 1420,
      "eor": 1421,
      "Ġprogr": 1422,
      "Ġtele": 1423,
      "aves": 1424,
      "Ġhuman": 1425,
      "Ġallow": 1426,
      "iversity": 1427,
      "rew": 1428,
      "Ġspecial": 1429,
      "Ġsold": 1430,
      "Ġgame": 1431,
      "ĠPres": 1432,
      "Ġcal": 1433,
      "Ġmarr": 1434,
      "Ġloc": 1435,
      "ĠOr": 1436,
      "Some": 1437,
      "iod": 1438,
      "Ġhead": 1439,
      "Ġexpl": 1440,
      "ĠBr": 1441,
      "ape": 1442,
      "ĠCon": 1443,
      "Ġclass": 1444,
      "ĠCl": 1445,
      "Ġmovie": 1446,
      "iqu": 1447,
      "Ġcomes": 1448,
      "ley": 1449,
      "Ġtrad": 1450,
      "ways": 1451,
      "ony": 1452,
      "ĠCity": 1453,
      "ĠTr": 1454,
      "erv": 1455,
      "ices": 1456,
      "rod": 1457,
      "Ġking": 1458,
      "Ġthose": 1459,
      "Ġmoder": 1460,
      "ĠDec": 1461,
      "Ġdire": 1462,
      "Ġnorth": 1463,
      "Ġplaces": 1464,
      "Ġknow": 1465,
      "Ġwrote": 1466,
      "ĠGr": 1467,
      "atin": 1468,
      "oph": 1469,
      "Ġtypes": 1470,
      "Ġhand": 1471,
      "Ġred": 1472,
      "Ġeff": 1473,
      "ĠPl": 1474,
      "Ġhig": 1475,
      "ides": 1476,
      "Ġocc": 1477,
      "Ġmen": 1478,
      "Ġhard": 1479,
      "ull": 1480,
      "âĢĻ": 1481,
      "gin": 1482,
      "ĠCan": 1483,
      "ĠItal": 1484,
      "Ġspecies": 1485,
      "vision": 1486,
      "Ġbest": 1487,
      "Ġ(\"": 1488,
      "Ġwomen": 1489,
      "eng": 1490,
      "Ġ12": 1491,
      "ĠGod": 1492,
      "Ġyou": 1493,
      "aving": 1494,
      "Ġed": 1495,
      "Ġrad": 1496,
      "ogr": 1497,
      "Ġjo": 1498,
      "par": 1499,
      "ush": 1500,
      "ened": 1501,
      "ĠAll": 1502,
      "Ġtype": 1503,
      "Ġcomputer": 1504,
      "yn": 1505,
      "Ġgreat": 1506,
      "ĠCal": 1507,
      "Ġstop": 1508,
      "Ġvi": 1509,
      "augh": 1510,
      "cted": 1511,
      "Ġsomething": 1512,
      "osp": 1513,
      "ccess": 1514,
      "ness": 1515,
      "ĠGree": 1516,
      "ertain": 1517,
      "ĠUS": 1518,
      "Ġstrong": 1519,
      "Ã©": 1520,
      "Ġseries": 1521,
      "Ġhistory": 1522,
      "ĠWh": 1523,
      "ĠOne": 1524,
      "ends": 1525,
      "Ġem": 1526,
      "Ġmodern": 1527,
      "Ġret": 1528,
      "Ġsuccess": 1529,
      "Ġrock": 1530,
      "iddle": 1531,
      "Ġcome": 1532,
      "let": 1533,
      "Ġgroups": 1534,
      "Ġes": 1535,
      "ister": 1536,
      "Ġothers": 1537,
      "Th": 1538,
      "stit": 1539,
      "ĠChina": 1540,
      "Ġtoo": 1541,
      "Ġ14": 1542,
      "ane": 1543,
      "imate": 1544,
      "Ġwithout": 1545,
      "Ġsw": 1546,
      "Ġpass": 1547,
      "Ġright": 1548,
      "Ġkeep": 1549,
      "Ġtemper": 1550,
      "cer": 1551,
      "ese": 1552,
      "ĠMay": 1553,
      "Ġcontrol": 1554,
      "ondon": 1555,
      "Ġcharac": 1556,
      "Ġwanted": 1557,
      "atural": 1558,
      "ple": 1559,
      "ash": 1560,
      "ected": 1561,
      "Ġrest": 1562,
      "Ġvers": 1563,
      "ret": 1564,
      "eth": 1565,
      "ĠBut": 1566,
      "Ġdise": 1567,
      "bs": 1568,
      "ilar": 1569,
      "though": 1570,
      "ĠJanuary": 1571,
      "Ġmount": 1572,
      "Ġstar": 1573,
      "ĠEmpire": 1574,
      "ĠYork": 1575,
      "Ġgl": 1576,
      "ele": 1577,
      "ĠMus": 1578,
      "ĠPresident": 1579,
      "Ġshort": 1580,
      "Ġpublic": 1581,
      "ained": 1582,
      "ĠKingdom": 1583,
      "Ġmust": 1584,
      "Ġtop": 1585,
      "uction": 1586,
      "Ġbo": 1587,
      "ĠSw": 1588,
      "Ġmeas": 1589,
      "ĠOther": 1590,
      "yl": 1591,
      "orthern": 1592,
      "ges": 1593,
      "Ġbased": 1594,
      "osed": 1595,
      "ange": 1596,
      "anish": 1597,
      "cess": 1598,
      "reed": 1599,
      "Ġfind": 1600,
      "Ġeat": 1601,
      "Ġreal": 1602,
      "ids": 1603,
      "Ġpoint": 1604,
      "ĠEx": 1605,
      "Ġplayed": 1606,
      "Ġmembers": 1607,
      "ĠâĢ": 1608,
      "Ġ11": 1609,
      "Ġsol": 1610,
      "Ġwin": 1611,
      "crib": 1612,
      "ĠAfrica": 1613,
      "\")": 1614,
      "Ġ.": 1615,
      "Ġcop": 1616,
      "Ġfore": 1617,
      "cean": 1618,
      "Ġvis": 1619,
      "Ġfin": 1620,
      "ĠBl": 1621,
      "Ġnext": 1622,
      "oviet": 1623,
      "Ġmonth": 1624,
      "Ġage": 1625,
      "uly": 1626,
      "ences": 1627,
      "ĠAb": 1628,
      "agn": 1629,
      "Ġperiod": 1630,
      "Ġoper": 1631,
      "ĠPh": 1632,
      "ternational": 1633,
      "Ġconsid": 1634,
      "Ġgiven": 1635,
      "Ġfem": 1636,
      "ecause": 1637,
      "Ġorder": 1638,
      "ĠPol": 1639,
      "ives": 1640,
      "ĠEuropean": 1641,
      "Ġaway": 1642,
      "Ġmass": 1643,
      "ĠLondon": 1644,
      "Ġcomple": 1645,
      "ised": 1646,
      "ĠAd": 1647,
      "Ġ193": 1648,
      "vered": 1649,
      "aced": 1650,
      "ĠDe": 1651,
      "Ġexper": 1652,
      "Ġareas": 1653,
      "ece": 1654,
      "emocr": 1655,
      "Ġisland": 1656,
      "Ġindepend": 1657,
      "ebr": 1658,
      "Ġbas": 1659,
      "Ġalways": 1660,
      "Ġyoun": 1661,
      "Ġsent": 1662,
      "Ġpolitical": 1663,
      "stead": 1664,
      "be": 1665,
      "Ġfather": 1666,
      "ired": 1667,
      "Ġblack": 1668,
      "Ġtelevision": 1669,
      "Ġfree": 1670,
      "Ġfact": 1671,
      "Ġlived": 1672,
      "pec": 1673,
      "ĠSoviet": 1674,
      "ague": 1675,
      "ĠComm": 1676,
      "Ġve": 1677,
      "Ġox": 1678,
      "Ġstates": 1679,
      "tract": 1680,
      "Ġregion": 1681,
      "alt": 1682,
      "cle": 1683,
      "me": 1684,
      "Ġdays": 1685,
      "ĠPar": 1686,
      "Ġsimilar": 1687,
      "Ġfil": 1688,
      "Ġdist": 1689,
      "Ġchemical": 1690,
      "ĠDecember": 1691,
      "ches": 1692,
      "alf": 1693,
      "Ġcannot": 1694,
      "Ġpen": 1695,
      "Ġsound": 1696,
      "ived": 1697,
      "St": 1698,
      "Ġpain": 1699,
      "Ġstand": 1700,
      "Ġeng": 1701,
      "Ġ13": 1702,
      "Ġmeaning": 1703,
      "Ġturn": 1704,
      "ica": 1705,
      "ivil": 1706,
      "ney": 1707,
      "Ġserv": 1708,
      "ically": 1709,
      "ugust": 1710,
      "uce": 1711,
      "yr": 1712,
      "ute": 1713,
      "Ġbelieve": 1714,
      "Ġbus": 1715,
      "Ġtoday": 1716,
      "Ġread": 1717,
      "ĠMarch": 1718,
      "It": 1719,
      "err": 1720,
      "ĠGeor": 1721,
      "Ġmostly": 1722,
      "Ġphys": 1723,
      "mber": 1724,
      "ĠSun": 1725,
      "ĠRiver": 1726,
      "wards": 1727,
      "ĠEd": 1728,
      "Ġchanged": 1729,
      "ense": 1730,
      "order": 1731,
      "Ġmight": 1732,
      "Ġattack": 1733,
      "Ġlist": 1734,
      "Ġcurren": 1735,
      "ĠGreek": 1736,
      "Ġside": 1737,
      "pril": 1738,
      "Ġgive": 1739,
      "ipp": 1740,
      "itary": 1741,
      "Ġgot": 1742,
      "Ġsocial": 1743,
      "cul": 1744,
      "Ġimp": 1745,
      "by": 1746,
      "side": 1747,
      "itions": 1748,
      "Ġz": 1749,
      "Ġfight": 1750,
      "Ġgames": 1751,
      "Ġspeak": 1752,
      "Ġbooks": 1753,
      "ling": 1754,
      "Ġblood": 1755,
      "ovember": 1756,
      "Ġmarried": 1757,
      "lu": 1758,
      "Ġint": 1759,
      "aren": 1760,
      "Ġdescrib": 1761,
      "Ġofficial": 1762,
      "ards": 1763,
      "ĠâĢĵ": 1764,
      "aster": 1765,
      "lear": 1766,
      "Ġsepar": 1767,
      "ada": 1768,
      "Ġbird": 1769,
      "ĠAustral": 1770,
      "ĠLatin": 1771,
      "Ġbetter": 1772,
      "Ġresp": 1773,
      "Ġlearn": 1774,
      "ĠScot": 1775,
      "Ġways": 1776,
      "ama": 1777,
      "cent": 1778,
      "Ġalmost": 1779,
      "aper": 1780,
      "Ġcond": 1781,
      "Ġimm": 1782,
      "Ġsea": 1783,
      "iety": 1784,
      "Ġalong": 1785,
      "ĠJuly": 1786,
      "ĠKore": 1787,
      "Ġwee": 1788,
      "rown": 1789,
      "illiam": 1790,
      "ured": 1791,
      "ograph": 1792,
      "Ġtell": 1793,
      "Ġgener": 1794,
      "Ġnational": 1795,
      "Ġscient": 1796,
      "Ġtre": 1797,
      "Ġfive": 1798,
      "bo": 1799,
      "ĠX": 1800,
      "Ġfun": 1801,
      "bon": 1802,
      "Ġled": 1803,
      "Ġnatural": 1804,
      "On": 1805,
      "ule": 1806,
      "ĠAugust": 1807,
      "like": 1808,
      "ern": 1809,
      "ental": 1810,
      "Ġplants": 1811,
      "sel": 1812,
      "ator": 1813,
      "ĠApril": 1814,
      "Ġsix": 1815,
      "irth": 1816,
      "Ġseen": 1817,
      "ips": 1818,
      "now": 1819,
      "Ġmater": 1820,
      "Ġflow": 1821,
      "iron": 1822,
      "ebruary": 1823,
      "Ġest": 1824,
      "iness": 1825,
      "reen": 1826,
      "Ġmother": 1827,
      "Ġmoved": 1828,
      "Ġtour": 1829,
      "Ġval": 1830,
      "Ġnumbers": 1831,
      "istr": 1832,
      "agan": 1833,
      "Ġpos": 1834,
      "Ġdone": 1835,
      "Ġline": 1836,
      "ĠCent": 1837,
      "Ġidea": 1838,
      "Ġopp": 1839,
      "Ġposs": 1840,
      "Ġref": 1841,
      "ĠMin": 1842,
      "Ġprocess": 1843,
      "iverse": 1844,
      "mbol": 1845,
      "enry": 1846,
      "ĠNovember": 1847,
      "ene": 1848,
      "Ġuses": 1849,
      "Ġincre": 1850,
      "Ġnorm": 1851,
      "ĠChristian": 1852,
      "ootball": 1853,
      "Ġkinds": 1854,
      "Ġvol": 1855,
      "Ġteam": 1856,
      "ĠSpanish": 1857,
      "Ġdesign": 1858,
      "Ġmovies": 1859,
      "ĠGreat": 1860,
      "ctober": 1861,
      "ĠJune": 1862,
      "Ġcolle": 1863,
      "lim": 1864,
      "Ġtw": 1865,
      "eptember": 1866,
      "Ġinstr": 1867,
      "Ġproblems": 1868,
      "attle": 1869,
      "ither": 1870,
      "Ġfish": 1871,
      "ented": 1872,
      "ilos": 1873,
      "II": 1874,
      "Ġcause": 1875,
      "jects": 1876,
      "Ġdisco": 1877,
      "Ġindustr": 1878,
      "Ġkilled": 1879,
      "Ġcare": 1880,
      "Ġtrave": 1881,
      "Ġcells": 1882,
      "Many": 1883,
      "ility": 1884,
      "ĠPro": 1885,
      "18": 1886,
      "ae": 1887,
      "iber": 1888,
      "lam": 1889,
      "ner": 1890,
      "Ġcor": 1891,
      "Ġwhite": 1892,
      "ĠWest": 1893,
      "Ġbiggest": 1894,
      "He": 1895,
      "Ġtheory": 1896,
      "Ġcertain": 1897,
      "Ġnever": 1898,
      "ement": 1899,
      "ĠUniversity": 1900,
      "ording": 1901,
      "pecially": 1902,
      "Ġtreat": 1903,
      "Ġant": 1904,
      "Ġthird": 1905,
      "Ġsmaller": 1906,
      "Ġdivided": 1907,
      "Ġmaterial": 1908,
      "ĠThat": 1909,
      "Ġpi": 1910,
      "Ġfri": 1911,
      "Ġperform": 1912,
      "Al": 1913,
      "ĠEast": 1914,
      "Ġrain": 1915,
      "ctor": 1916,
      "Ġenough": 1917,
      "formation": 1918,
      "ĠIndia": 1919,
      "ots": 1920,
      "Ġlevel": 1921,
      "min": 1922,
      "ĠFebruary": 1923,
      "Ġcoast": 1924,
      "Ġsingle": 1925,
      "Ġfield": 1926,
      "Ġlow": 1927,
      "ometimes": 1928,
      "Ġsymbol": 1929,
      "ours": 1930,
      "cience": 1931,
      "ĠDuring": 1932,
      "Ġexist": 1933,
      "sh": 1934,
      "outhern": 1935,
      "ode": 1936,
      "wh": 1937,
      "ites": 1938,
      "Ġvot": 1939,
      "Ġinside": 1940,
      "Ġriver": 1941,
      "Ġeast": 1942,
      "Ġgave": 1943,
      "aken": 1944,
      "ĠArab": 1945,
      "Ġbre": 1946,
      "ĠIts": 1947,
      "ĠAnd": 1948,
      "Ġlaws": 1949,
      "ara": 1950,
      "ĠSeptember": 1951,
      "Ġable": 1952,
      "uck": 1953,
      "Ġinflu": 1954,
      "Ġdet": 1955,
      "face": 1956,
      "omin": 1957,
      "Ġspace": 1958,
      "ius": 1959,
      "Ġpe": 1960,
      "Ġheld": 1961,
      "Ġplant": 1962,
      "indows": 1963,
      "Ġincludes": 1964,
      "ydro": 1965,
      "Ġchanges": 1966,
      "Ġsongs": 1967,
      "Ġpat": 1968,
      "omb": 1969,
      "Ġcir": 1970,
      "Ġ30": 1971,
      "Ġpast": 1972,
      "olic": 1973,
      "Ġmod": 1974,
      "When": 1975,
      "ĠAng": 1976,
      "ĠCath": 1977,
      "ances": 1978,
      "Ġstat": 1979,
      "Ġ202": 1980,
      "ĠOctober": 1981,
      "ought": 1982,
      "Ġcaused": 1983,
      "ĠMed": 1984,
      "ĠPart": 1985,
      "ĠWilliam": 1986,
      "inese": 1987,
      "Ġmilitary": 1988,
      "Ġtemperature": 1989,
      "Ġconsidered": 1990,
      "ana": 1991,
      "ĠSo": 1992,
      "Ġson": 1993,
      "Ġmark": 1994,
      "Ġhalf": 1995,
      "Ġgas": 1996,
      "ection": 1997,
      "Ġnon": 1998,
      "Ġcolor": 1999,
      "Ġappear": 2000,
      "ĠJew": 2001,
      "Ġhaving": 2002,
      "ummer": 2003,
      "Ġsug": 2004,
      "Ġamount": 2005,
      "hel": 2006,
      "ĠIr": 2007,
      "acy": 2008,
      "ified": 2009,
      "Ġsomeone": 2010,
      "aur": 2011,
      "ional": 2012,
      "Ġespecially": 2013,
      "Ch": 2014,
      "ler": 2015,
      "Ġhot": 2016,
      "Ġrepl": 2017,
      "ĠNational": 2018,
      "born": 2019,
      "Ġbi": 2020,
      "Ġancient": 2021,
      "Ġhealth": 2022,
      "ĠQue": 2023,
      "Ġreact": 2024,
      "ata": 2025,
      "Ġpubl": 2026,
      "Ġnuc": 2027,
      "Ġlittle": 2028,
      "Ġbad": 2029,
      "Ġwest": 2030,
      "Ġste": 2031,
      "Ġresult": 2032,
      "Ġphilos": 2033,
      "Ġbeh": 2034,
      "ĠBecause": 2035,
      "iforn": 2036,
      "ĠGu": 2037,
      "Ġdisease": 2038,
      "ls": 2039,
      "Ġhold": 2040,
      "ster": 2041,
      "Ġrefer": 2042,
      "Ġtry": 2043,
      "Ġmetal": 2044,
      "Ġopen": 2045,
      "of": 2046,
      "ĠAm": 2047,
      "Ġsoft": 2048,
      "Ġunderst": 2049,
      "10": 2050,
      "ee": 2051,
      "Ġbirth": 2052,
      "Ġbecom": 2053,
      "Ġeither": 2054,
      "ye": 2055,
      "ĠHenry": 2056,
      "ĠGo": 2057,
      "Ġideas": 2058,
      "ued": 2059,
      "Ġmember": 2060,
      "Ġgod": 2061,
      "idge": 2062,
      "Ġobject": 2063,
      "echn": 2064,
      "Ġfollowing": 2065,
      "selves": 2066,
      "Ġinstead": 2067,
      "Ġforce": 2068,
      "lic": 2069,
      "Ġ100": 2070,
      "lin": 2071,
      "ware": 2072,
      "Ġhumans": 2073,
      "Ġcurrent": 2074,
      "aut": 2075,
      "ri": 2076,
      "Ġlate": 2077,
      "ĠMic": 2078,
      "ounds": 2079,
      "Ġevent": 2080,
      "less": 2081,
      "rom": 2082,
      "volution": 2083,
      "Ġclose": 2084,
      "ĠEl": 2085,
      "Ġreturn": 2086,
      "ham": 2087,
      "Ġthemselves": 2088,
      "Ġformed": 2089,
      "ifornia": 2090,
      "Ġer": 2091,
      "Ġav": 2092,
      "Ġcour": 2093,
      "urg": 2094,
      "thing": 2095,
      "Ġdev": 2096,
      "ization": 2097,
      "Ġplayer": 2098,
      "ĠBC": 2099,
      "ĠChurch": 2100,
      "Ġworks": 2101,
      "etic": 2102,
      "'t": 2103,
      "can": 2104,
      "Ġwoman": 2105,
      "umb": 2106,
      "ĠChinese": 2107,
      "ternet": 2108,
      "Ġmeth": 2109,
      "yle": 2110,
      "Ġtaken": 2111,
      "istan": 2112,
      "Ġgeneral": 2113,
      "Ġrepres": 2114,
      "aim": 2115,
      "Ġsour": 2116,
      "Ġlost": 2117,
      "Ġ192": 2118,
      "Ġyoung": 2119,
      "After": 2120,
      "Ġche": 2121,
      "Ġdi": 2122,
      "Ġrece": 2123,
      "ĠHer": 2124,
      "Ġext": 2125,
      "Ġwriting": 2126,
      "lor": 2127,
      "Ġjob": 2128,
      "Ġworked": 2129,
      "Ġamong": 2130,
      "Ġbuilding": 2131,
      "ĠSea": 2132,
      "Ġmix": 2133,
      "Ġconn": 2134,
      "oken": 2135,
      "Ġallowed": 2136,
      "Ġtest": 2137,
      "ille": 2138,
      "Ġonce": 2139,
      "Ġengine": 2140,
      "Ġfall": 2141,
      "Ġhydro": 2142,
      "Ġproper": 2143,
      "Ġver": 2144,
      "Ġcompany": 2145,
      "ĠBritain": 2146,
      "Ġobs": 2147,
      "50": 2148,
      "ĠBel": 2149,
      "\").": 2150,
      "gg": 2151,
      "atures": 2152,
      "Ġhouse": 2153,
      "ĠChar": 2154,
      "Ġshows": 2155,
      "ĠCalifornia": 2156,
      "atch": 2157,
      "ĠRussia": 2158,
      "ength": 2159,
      "we": 2160,
      "Ġscience": 2161,
      "Ġclimate": 2162,
      "Ġhighest": 2163,
      "reland": 2164,
      "Ġsqu": 2165,
      "Ġsays": 2166,
      "Ġconf": 2167,
      "Ġcarbon": 2168,
      "Ġorigin": 2169,
      "iers": 2170,
      "ico": 2171,
      "ĠHol": 2172,
      "Ġtradition": 2173,
      "ym": 2174,
      "att": 2175,
      "ender": 2176,
      "Ġclub": 2177,
      "ĠSpain": 2178,
      "Ġspeed": 2179,
      "Ġwide": 2180,
      "Ġann": 2181,
      "mon": 2182,
      "ands": 2183,
      "Ġradio": 2184,
      "ĠAustralia": 2185,
      "errit": 2186,
      "ĠRom": 2187,
      "Ġarch": 2188,
      "avy": 2189,
      "com": 2190,
      "Ġice": 2191,
      "Ġtalk": 2192,
      "ino": 2193,
      "ĠMan": 2194,
      "ored": 2195,
      "Ġlonger": 2196,
      "Ġbusiness": 2197,
      "ĠTheir": 2198,
      "Ġmult": 2199,
      "Ġdest": 2200,
      "ĠMon": 2201,
      "ĠWe": 2202,
      "Ġdistr": 2203,
      "gypt": 2204,
      "Ġelectric": 2205,
      "Ġversion": 2206,
      "ators": 2207,
      "aul": 2208,
      "Ġhost": 2209,
      "roy": 2210,
      "ĠBy": 2211,
      "ival": 2212,
      "ĠParty": 2213,
      "Ġinformation": 2214,
      "Ġlim": 2215,
      "Ġbegin": 2216,
      "verage": 2217,
      "ctions": 2218,
      "ĠIslam": 2219,
      "Ġ$": 2220,
      "Ġtit": 2221,
      "Ġsize": 2222,
      "Ġislands": 2223,
      "Ġelected": 2224,
      "ĠIreland": 2225,
      "asons": 2226,
      "Ġgu": 2227,
      "eter": 2228,
      "urb": 2229,
      "Ġleader": 2230,
      "Ġculture": 2231,
      "stitution": 2232,
      "ĠMuslim": 2233,
      "ygen": 2234,
      "Ġaff": 2235,
      "Ġcivil": 2236,
      "Ġmar": 2237,
      "Ġseason": 2238,
      "nam": 2239,
      "Ġarmy": 2240,
      "ĠCanada": 2241,
      "Ġbirds": 2242,
      "Ġparen": 2243,
      "ĠPope": 2244,
      "Ġdiff": 2245,
      "Ġwrite": 2246,
      "ĠAsia": 2247,
      "Ġsuccessful": 2248,
      "af": 2249,
      "Ġpict": 2250,
      "amb": 2251,
      "Ġstre": 2252,
      "self": 2253,
      "Ġhelped": 2254,
      "Ġworking": 2255,
      "Ġsurface": 2256,
      "lo": 2257,
      "onic": 2258,
      "ĠEgypt": 2259,
      "key": 2260,
      "elling": 2261,
      "Ġeconomy": 2262,
      "Ġstay": 2263,
      "ĠJack": 2264,
      "Ġsexual": 2265,
      "17": 2266,
      "zer": 2267,
      "erc": 2268,
      "ĠMo": 2269,
      "ĠEs": 2270,
      "Ġwithin": 2271,
      "Ġago": 2272,
      "aff": 2273,
      "ĠPort": 2274,
      "oday": 2275,
      "Ġquick": 2276,
      "Ġreligion": 2277,
      "Ġoccur": 2278,
      "kn": 2279,
      "Ġprof": 2280,
      "ĠMount": 2281,
      "ended": 2282,
      "Ġearl": 2283,
      "ps": 2284,
      "Ġtot": 2285,
      "Ġthous": 2286,
      "lymp": 2287,
      "Ġpress": 2288,
      "Ġcharacter": 2289,
      "Ġindependent": 2290,
      "cil": 2291,
      "ring": 2292,
      "eles": 2293,
      "Ġforms": 2294,
      "Ġrules": 2295,
      "liam": 2296,
      "ma": 2297,
      "Ġrights": 2298,
      "Ġbelieved": 2299,
      "Ġlocal": 2300,
      "Most": 2301,
      "ior": 2302,
      "ĠOcean": 2303,
      "ideo": 2304,
      "Ġfeel": 2305,
      "ĠCatholic": 2306,
      "Ġcomb": 2307,
      "ivity": 2308,
      "ĠReagan": 2309,
      "ĠItaly": 2310,
      "ĠGeorge": 2311,
      "hor": 2312,
      "Ġass": 2313,
      "aged": 2314,
      "Ġdeveloped": 2315,
      "Ġeduc": 2316,
      "ched": 2317,
      "work": 2318,
      "olved": 2319,
      "Ġlarger": 2320,
      "Ġoutside": 2321,
      "oes": 2322,
      "Ġwood": 2323,
      "ald": 2324,
      "ether": 2325,
      "âĢĿ": 2326,
      "Ġrole": 2327,
      "ashing": 2328,
      "ĠWindows": 2329,
      "Ġcenter": 2330,
      "ming": 2331,
      "icult": 2332,
      "Ġreason": 2333,
      "ĠMex": 2334,
      "Ġended": 2335,
      "line": 2336,
      "hers": 2337,
      "Ġdrug": 2338,
      "Ġmathem": 2339,
      "igr": 2340,
      "ude": 2341,
      "ending": 2342,
      "Ġacross": 2343,
      "yth": 2344,
      "Ġnorthern": 2345,
      "Ġstars": 2346,
      "ansas": 2347,
      "Ġinstrum": 2348,
      "Ġhol": 2349,
      "Ġdue": 2350,
      "Ġwife": 2351,
      "urt": 2352,
      "Ġ25": 2353,
      "ĠKorea": 2354,
      "ality": 2355,
      "Ġmot": 2356,
      "Ġfootball": 2357,
      "Ġ2000": 2358,
      "Ġneeded": 2359,
      "Ġoriginal": 2360,
      "Ġeffect": 2361,
      "This": 2362,
      "bab": 2363,
      "vi": 2364,
      "Ġborder": 2365,
      "ĠTo": 2366,
      "iest": 2367,
      "Ġplayers": 2368,
      "Ġhappen": 2369,
      "Ġviol": 2370,
      "Ġask": 2371,
      "Ġjoined": 2372,
      "ĠâĢľ": 2373,
      "med": 2374,
      "sp": 2375,
      "Ġ,": 2376,
      "ĠOlymp": 2377,
      "Ġground": 2378,
      "Ġincluded": 2379,
      "Ġweek": 2380,
      "liament": 2381,
      "ient": 2382,
      "put": 2383,
      "ĠWestern": 2384,
      "tra": 2385,
      "Ġdecided": 2386,
      "Ġpossible": 2387,
      "rought": 2388,
      "Ġplanet": 2389,
      "gn": 2390,
      "Ġaverage": 2391,
      "ĠMor": 2392,
      "Ġformer": 2393,
      "ills": 2394,
      "ctors": 2395,
      "Ġlives": 2396,
      "ĠRussian": 2397,
      "known": 2398,
      "for": 2399,
      "lar": 2400,
      "Ġslow": 2401,
      "ĠSec": 2402,
      "ached": 2403,
      "uced": 2404,
      "Ġrelations": 2405,
      "Ar": 2406,
      "Ġtechn": 2407,
      "itan": 2408,
      "Ġlay": 2409,
      "Ġabove": 2410,
      "Ġgoes": 2411,
      "Ġpract": 2412,
      "ux": 2413,
      "vin": 2414,
      "lex": 2415,
      "ott": 2416,
      "Ġstory": 2417,
      "ission": 2418,
      "Ġvarious": 2419,
      "Ġtotal": 2420,
      "arb": 2421,
      "ago": 2422,
      "Ġcho": 2423,
      "Ġleast": 2424,
      "Ġweap": 2425,
      "Ġcut": 2426,
      "Ġmale": 2427,
      "aps": 2428,
      "Ġ190": 2429,
      "Ġspoken": 2430,
      "ogn": 2431,
      "Ġcalend": 2432,
      "..": 2433,
      "Ġtakes": 2434,
      "ency": 2435,
      "Ġball": 2436,
      "Ġadv": 2437,
      "sy": 2438,
      "itive": 2439,
      "Ġmach": 2440,
      "Ġhit": 2441,
      "Ġrequ": 2442,
      "Ġra": 2443,
      "Ġatom": 2444,
      "Ġcreate": 2445,
      ",\"": 2446,
      "Ġten": 2447,
      "Ġitself": 2448,
      "Ġdisc": 2449,
      "Ġ186": 2450,
      "Ġcapt": 2451,
      "Ġschools": 2452,
      "ĠJapanese": 2453,
      "Ġmountain": 2454,
      "Ġdiscovered": 2455,
      "Ã¼": 2456,
      "Ġge": 2457,
      "Ġmatter": 2458,
      "Ġmonths": 2459,
      "Ġever": 2460,
      "ĠHouse": 2461,
      "ĠEn": 2462,
      "Ġcompan": 2463,
      "Ġphot": 2464,
      "Ġbrother": 2465,
      "Ġmethod": 2466,
      "Ġelection": 2467,
      "Ġ1990": 2468,
      "Ġdifficult": 2469,
      "ged": 2470,
      "lant": 2471,
      "ores": 2472,
      "tar": 2473,
      "uel": 2474,
      "Ġoil": 2475,
      "Ġcamp": 2476,
      "Ġnames": 2477,
      "Ġ1980": 2478,
      "Ġmeasure": 2479,
      "part": 2480,
      "Ġliqu": 2481,
      "ols": 2482,
      "ĠMiddle": 2483,
      "ĠBer": 2484,
      "Ġspread": 2485,
      "Ġoxygen": 2486,
      "Ġpublished": 2487,
      "Ġunderstand": 2488,
      "Ġpaper": 2489,
      "Ġlower": 2490,
      "Ġmole": 2491,
      "Ġparty": 2492,
      "Ġhowever": 2493,
      "Ġview": 2494,
      "ties": 2495,
      "Ġpur": 2496,
      "ĠSometimes": 2497,
      "Ġegg": 2498,
      "Ġrule": 2499,
      "Ġ21": 2500,
      "ĠLou": 2501,
      "Ġfemale": 2502,
      "For": 2503,
      "Ġbrought": 2504,
      "aining": 2505,
      "Ġcancer": 2506,
      "Ġdestroy": 2507,
      "ashington": 2508,
      "aint": 2509,
      "ems": 2510,
      "udd": 2511,
      "Ġforest": 2512,
      "Ġlab": 2513,
      "utch": 2514,
      "Ġclaim": 2515,
      "Ġterrit": 2516,
      "Ġang": 2517,
      "Ġrese": 2518,
      "Ġtrue": 2519,
      "astern": 2520,
      "ĠJes": 2521,
      "Ġsuper": 2522,
      "Ġ1970": 2523,
      "Ġhistor": 2524,
      "ned": 2525,
      "iter": 2526,
      "ults": 2527,
      "Ġgoing": 2528,
      "Ġsystems": 2529,
      "Ġquickly": 2530,
      "Ġchurch": 2531,
      "uitar": 2532,
      "ops": 2533,
      "âĢĶ": 2534,
      "Ġsurv": 2535,
      "Ġmonarch": 2536,
      "Ġskin": 2537,
      "ey": 2538,
      "vious": 2539,
      "Ġmag": 2540,
      "Ġpay": 2541,
      "icles": 2542,
      "ĠGen": 2543,
      "ĠLeague": 2544,
      "Ġadded": 2545,
      "aughter": 2546,
      "Ġparents": 2547,
      "ford": 2548,
      "Â°": 2549,
      "ination": 2550,
      "Ġcold": 2551,
      "Ġinternational": 2552,
      "Ġdig": 2553,
      "used": 2554,
      "ounced": 2555,
      "Ġtried": 2556,
      "Ġgets": 2557,
      "ped": 2558,
      "Ġsun": 2559,
      "Ġthing": 2560,
      "Ġel": 2561,
      "soci": 2562,
      "Ġvir": 2563,
      "Ġappro": 2564,
      "Ġcomputers": 2565,
      "Ġprogram": 2566,
      "ĠScotland": 2567,
      "uk": 2568,
      "ads": 2569,
      "Ġseparate": 2570,
      "bit": 2571,
      "Ġcele": 2572,
      "Ġhom": 2573,
      "Ġdata": 2574,
      "ĠQueen": 2575,
      "Ġour": 2576,
      "Ġfire": 2577,
      "Ġla": 2578,
      "Ġuniverse": 2579,
      "Ġ2008": 2580,
      "iction": 2581,
      "Ġbuildings": 2582,
      "Ġprotect": 2583,
      "ery": 2584,
      "Ġbase": 2585,
      "Ġpresent": 2586,
      "Ġappe": 2587,
      "Ġanimal": 2588,
      "Ġmedic": 2589,
      "Ġcompanies": 2590,
      "16": 2591,
      "As": 2592,
      "ires": 2593,
      "Ġcase": 2594,
      "Ġ24": 2595,
      "oses": 2596,
      "Ġarr": 2597,
      "15": 2598,
      "ĠThen": 2599,
      "ĠState": 2600,
      "Ġ189": 2601,
      "Ġobjects": 2602,
      "Ġsimple": 2603,
      "Ġcauses": 2604,
      "14": 2605,
      "ania": 2606,
      "Ġmiddle": 2607,
      "Ġpot": 2608,
      "Ġprom": 2609,
      "Ġstruct": 2610,
      "Ġreligious": 2611,
      "Ã¶": 2612,
      "ering": 2613,
      "Ġalthough": 2614,
      "Ġheart": 2615,
      "Ġ2004": 2616,
      "Ġkept": 2617,
      "undred": 2618,
      "ask": 2619,
      "Ġexcept": 2620,
      "Ġpred": 2621,
      "Ġhimself": 2622,
      "Ġmainly": 2623,
      "ĠAfrican": 2624,
      "Ġcalendar": 2625,
      "Ġwall": 2626,
      "Ġwhole": 2627,
      "ibr": 2628,
      "Ġpowerful": 2629,
      "Ġident": 2630,
      "Ġkil": 2631,
      "lled": 2632,
      "emocratic": 2633,
      "BC": 2634,
      "People": 2635,
      "ĠMary": 2636,
      "ĠEm": 2637,
      "aped": 2638,
      "ĠNe": 2639,
      "Ġearth": 2640,
      "tt": 2641,
      "Ġsouthern": 2642,
      "Ġcomplete": 2643,
      "NA": 2644,
      "fs": 2645,
      "Ġcreat": 2646,
      "ĠSince": 2647,
      "eces": 2648,
      "Ġris": 2649,
      "Ġvideo": 2650,
      "Ġtrade": 2651,
      "ĠViet": 2652,
      "Ġ2005": 2653,
      "Ġhigher": 2654,
      "ĠItalian": 2655,
      "oved": 2656,
      "ently": 2657,
      "ĠFin": 2658,
      "Ġ50": 2659,
      "Ġgold": 2660,
      "Ġatoms": 2661,
      "Ġtrib": 2662,
      "ression": 2663,
      "Ġhor": 2664,
      "Ġoldest": 2665,
      "ĠAtlant": 2666,
      "Ġfilm": 2667,
      "Ġforces": 2668,
      "ulf": 2669,
      "ĠEach": 2670,
      "ĠTur": 2671,
      "iles": 2672,
      "Ġstyle": 2673,
      "atter": 2674,
      "Ġdem": 2675,
      "Ġnet": 2676,
      "ĠSan": 2677,
      "Ġshape": 2678,
      "Ġsociety": 2679,
      "Ġbreak": 2680,
      "Ġcelebr": 2681,
      "por": 2682,
      "Ġtold": 2683,
      "Ġgrew": 2684,
      "ander": 2685,
      "apt": 2686,
      "ĠWashington": 2687,
      "ĠAmericans": 2688,
      "ĠFranc": 2689,
      "ological": 2690,
      "stein": 2691,
      "Ġtrees": 2692,
      "men": 2693,
      "rain": 2694,
      "aries": 2695,
      "Ġlength": 2696,
      "12": 2697,
      "uge": 2698,
      "ints": 2699,
      "Ġattract": 2700,
      "Ġweapons": 2701,
      "inary": 2702,
      "istic": 2703,
      "Ġ2006": 2704,
      "rick": 2705,
      "Ġolder": 2706,
      "Ġ1960": 2707,
      "Ġparticular": 2708,
      "Ġdirect": 2709,
      "Ġexperi": 2710,
      "Ġposition": 2711,
      "go": 2712,
      "Ġwind": 2713,
      "Ġguitar": 2714,
      "Ġwhy": 2715,
      "Ġ2001": 2716,
      "Ġruled": 2717,
      "At": 2718,
      "Ġtax": 2719,
      "Ġsil": 2720,
      "Ġplaying": 2721,
      "Ġproduce": 2722,
      "Ġproduced": 2723,
      "Ġcharacters": 2724,
      "where": 2725,
      "isc": 2726,
      "Ġhun": 2727,
      "elt": 2728,
      "Ġseven": 2729,
      "Ġsoon": 2730,
      "Ġmoving": 2731,
      "Ġ0": 2732,
      "Ġsem": 2733,
      "Ġcy": 2734,
      "Ġfre": 2735,
      "ĠBush": 2736,
      "ipt": 2737,
      "Ġcolon": 2738,
      "Ġgetting": 2739,
      "Ġletters": 2740,
      "ophy": 2741,
      "Ġmountains": 2742,
      "val": 2743,
      "ĠMich": 2744,
      "ĠNations": 2745,
      "ĠLater": 2746,
      "ĠDutch": 2747,
      "soft": 2748,
      "Ġmeet": 2749,
      "Ġaddition": 2750,
      "Ġproblem": 2751,
      "viron": 2752,
      "Ġtree": 2753,
      "Ġcrit": 2754,
      "ades": 2755,
      "idence": 2756,
      "ĠNor": 2757,
      "Ġdeg": 2758,
      "Ġauthor": 2759,
      "Ġoppos": 2760,
      "Ã¡": 2761,
      "reme": 2762,
      "Ġdam": 2763,
      "Ġlog": 2764,
      "Ġeth": 2765,
      "Ġrather": 2766,
      "raft": 2767,
      "Ġsoldiers": 2768,
      "Ġfriends": 2769,
      "Ġsource": 2770,
      "Ġwestern": 2771,
      "oul": 2772,
      "Ġhundred": 2773,
      "ĠSm": 2774,
      "acter": 2775,
      "ump": 2776,
      "ivid": 2777,
      "ords": 2778,
      "Ġelements": 2779,
      "Ġprim": 2780,
      "ccording": 2781,
      "ĠIndian": 2782,
      "Ġletter": 2783,
      "Ġhydrogen": 2784,
      "iation": 2785,
      "west": 2786,
      "ĠSy": 2787,
      "Ġep": 2788,
      "Ġships": 2789,
      "Ġfounded": 2790,
      "Ġintrod": 2791,
      "ography": 2792,
      "Ġappeared": 2793,
      "de": 2794,
      "Ġiss": 2795,
      "emy": 2796,
      "ĠRo": 2797,
      "ĠInternet": 2798,
      "Ġevents": 2799,
      "Ġquest": 2800,
      "ĠGreece": 2801,
      "Ġsit": 2802,
      "aria": 2803,
      "Ġfull": 2804,
      "ĠSup": 2805,
      "ĠPer": 2806,
      "'.": 2807,
      "During": 2808,
      "fect": 2809,
      "oud": 2810,
      "Ġalph": 2811,
      "Ġsports": 2812,
      "Ġvac": 2813,
      "Ġarg": 2814,
      "Ġsym": 2815,
      "Ġrecogn": 2816,
      "stronom": 2817,
      "Ġhappens": 2818,
      "Ġinterest": 2819,
      "Ġmovement": 2820,
      "Ġvisit": 2821,
      "Ġscientists": 2822,
      "ĠJackson": 2823,
      "anks": 2824,
      "ĠSoc": 2825,
      "ĠVir": 2826,
      "Ġcarry": 2827,
      "Ġregions": 2828,
      "Ġsoftware": 2829,
      "Un": 2830,
      "mas": 2831,
      "oe": 2832,
      "ĠHind": 2833,
      "Ġdead": 2834,
      "Ġcompos": 2835,
      "Ġrelationship": 2836,
      "xual": 2837,
      "era": 2838,
      "eder": 2839,
      "uries": 2840,
      "ĠBible": 2841,
      "ĠJames": 2842,
      "Ġcompounds": 2843,
      "Ġbab": 2844,
      "ention": 2845,
      "ĠDay": 2846,
      "Ġrelease": 2847,
      "ze": 2848,
      "Ġhar": 2849,
      "rosoft": 2850,
      "Ġheat": 2851,
      "que": 2852,
      "Ġactor": 2853,
      "ĠJesus": 2854,
      "ĠCoun": 2855,
      "Ġneut": 2856,
      "Ġdrink": 2857,
      "ao": 2858,
      "Ġburn": 2859,
      "Ġinst": 2860,
      "Ġnight": 2861,
      "Ġgrav": 2862,
      "Ġaccept": 2863,
      "aught": 2864,
      "Ġnuclear": 2865,
      "ij": 2866,
      "Ġsaw": 2867,
      "Ġfought": 2868,
      "ĠPark": 2869,
      "ĠGl": 2870,
      "ĠInternational": 2871,
      "Ġrecorded": 2872,
      "ĠColumb": 2873,
      "Ġindustry": 2874,
      "Ġsquare": 2875,
      "Ġmathemat": 2876,
      "ron": 2877,
      "arian": 2878,
      "Ġfail": 2879,
      "ĠNorthern": 2880,
      "ĠNether": 2881,
      "Ġprop": 2882,
      "Ġmeant": 2883,
      "Ġenviron": 2884,
      "Ġ2011": 2885,
      "Ġnormal": 2886,
      "Ġtravel": 2887,
      "Ġmultip": 2888,
      "ĠPortug": 2889,
      "Ġeducation": 2890,
      "13": 2891,
      "add": 2892,
      "Ġstories": 2893,
      "Ġinvented": 2894,
      "Ġwear": 2895,
      "ĠAir": 2896,
      "ĠWith": 2897,
      "Ġplays": 2898,
      "ĠKansas": 2899,
      "Ġrelated": 2900,
      "Ġrepresent": 2901,
      "200": 2902,
      "erous": 2903,
      "ĠRich": 2904,
      "Ġprobab": 2905,
      "Ġunivers": 2906,
      "Ġbrain": 2907,
      "Ġsinger": 2908,
      "Ġsupported": 2909,
      "ĠBlack": 2910,
      "Ġcat": 2911,
      "Ġhair": 2912,
      "Ġgreen": 2913,
      "Ġpregn": 2914,
      "Ġmedical": 2915,
      "Ġcit": 2916,
      "edy": 2917,
      "Ġdry": 2918,
      "ĠMe": 2919,
      "ĠMal": 2920,
      "unk": 2921,
      "Ġ2007": 2922,
      "Ġ188": 2923,
      "Ġblue": 2924,
      "Ġprevious": 2925,
      "Ġhappened": 2926,
      "Ġdevelopment": 2927,
      "Ġpenis": 2928,
      "Ġill": 2929,
      "edi": 2930,
      "Ġdaughter": 2931,
      "ils": 2932,
      "ĠPaul": 2933,
      "Ġ22": 2934,
      "Ġ23": 2935,
      "Ġcounty": 2936,
      "Ġcommonly": 2937,
      "Ġreligions": 2938,
      "ĠParis": 2939,
      "Ġdark": 2940,
      "Ġestab": 2941,
      "burg": 2942,
      "Ġsummer": 2943,
      "Ġexamples": 2944,
      "Ġdefe": 2945,
      "ĠPhil": 2946,
      "Ġimpro": 2947,
      "ÃŃ": 2948,
      "enced": 2949,
      "Ġmamm": 2950,
      "Ġeight": 2951,
      "ĠCong": 2952,
      "ĠDis": 2953,
      "Ġshown": 2954,
      "Ġ2010": 2955,
      "Ġindivid": 2956,
      "ique": 2957,
      "Ġreceived": 2958,
      "ĠCharles": 2959,
      "Ġprofess": 2960,
      "mark": 2961,
      "Ġdom": 2962,
      "udi": 2963,
      "Ġbuy": 2964,
      "incip": 2965,
      "osphere": 2966,
      "Ġbeginning": 2967,
      "ael": 2968,
      "ky": 2969,
      "Ġtou": 2970,
      "Ġcentral": 2971,
      "Ġstarting": 2972,
      "ĠCentral": 2973,
      "sych": 2974,
      "ĠLouis": 2975,
      "onn": 2976,
      "Ġport": 2977,
      "uses": 2978,
      "ĠSer": 2979,
      "Ġmos": 2980,
      "ief": 2981,
      "Ġpoor": 2982,
      "Ġreplaced": 2983,
      "Ġlegal": 2984,
      "Ġvolcan": 2985,
      "ĠMexico": 2986,
      "\"),": 2987,
      "ĠAc": 2988,
      "ĠCo": 2989,
      "ĠCub": 2990,
      "Ġrail": 2991,
      "bert": 2992,
      "Ġgraph": 2993,
      "Ġservice": 2994,
      "ĠNetherlands": 2995,
      "fe": 2996,
      "ya": 2997,
      "atives": 2998,
      "Ġfast": 2999,
      "ellow": 3000,
      "Ġ2003": 3001,
      "Ġpriv": 3002,
      "Ġoffice": 3003,
      "Ġalphab": 3004,
      "Ġlove": 3005,
      "Ġrange": 3006,
      "Ġdraw": 3007,
      "Ġthroughout": 3008,
      "ĠCarter": 3009,
      "Wh": 3010,
      "round": 3011,
      "ĠApp": 3012,
      "utes": 3013,
      "uman": 3014,
      "ĠAlso": 3015,
      "Ġfollowed": 3016,
      "Ġeconomic": 3017,
      "Ġcourt": 3018,
      "aid": 3019,
      "Ġsell": 3020,
      "olar": 3021,
      "urches": 3022,
      "odies": 3023,
      "Ġcontr": 3024,
      "ouses": 3025,
      "ĠAnother": 3026,
      "Ġbroad": 3027,
      "Ġexperim": 3028,
      "Ġgenerally": 3029,
      "Ġpiece": 3030,
      "which": 3031,
      "lit": 3032,
      "uff": 3033,
      "ests": 3034,
      "ĠAward": 3035,
      "aded": 3036,
      "ager": 3037,
      "Ġ2009": 3038,
      "Ġliquid": 3039,
      "uddh": 3040,
      "70": 3041,
      "gal": 3042,
      "ply": 3043,
      "Ġfur": 3044,
      "agon": 3045,
      "ately": 3046,
      "Ġdoing": 3047,
      "Ġworkers": 3048,
      "Ġelectrons": 3049,
      "Ġleaders": 3050,
      "Ġalbums": 3051,
      "Ġproducts": 3052,
      "Ġcontinued": 3053,
      "xide": 3054,
      "Ġcam": 3055,
      "Ġcook": 3056,
      "ederal": 3057,
      "ĠHar": 3058,
      "ĠHaw": 3059,
      "Ġyour": 3060,
      "erman": 3061,
      "Ġplanets": 3062,
      "ground": 3063,
      "Ġcharge": 3064,
      "ĠMicrosoft": 3065,
      "yp": 3066,
      "ĠToday": 3067,
      "ĠSl": 3068,
      "aches": 3069,
      "ĠNaz": 3070,
      "Ġpercent": 3071,
      "Ġstudied": 3072,
      "Ġpieces": 3073,
      "sc": 3074,
      "win": 3075,
      "Ġwr": 3076,
      "Ġnation": 3077,
      "oll": 3078,
      "ĠCr": 3079,
      "ĠFl": 3080,
      "Ġprote": 3081,
      "Ġcompet": 3082,
      "orders": 3083,
      "Ġsyn": 3084,
      "Ġbasic": 3085,
      "ĠVirgin": 3086,
      "ait": 3087,
      "icago": 3088,
      "Ġet": 3089,
      "ĠCup": 3090,
      "ĠMil": 3091,
      "Ġfront": 3092,
      "Ġwhether": 3093,
      "Ġ2002": 3094,
      "Ġsubst": 3095,
      "Ġgives": 3096,
      "Ġfighting": 3097,
      "Ġeggs": 3098,
      "cel": 3099,
      "yes": 3100,
      "Ġcross": 3101,
      "ĠSat": 3102,
      "Ġreport": 3103,
      "ĠCount": 3104,
      "ift": 3105,
      "Ġrivers": 3106,
      "iving": 3107,
      "Ġvill": 3108,
      "Ġbigger": 3109,
      "Ġentire": 3110,
      "Ġwinter": 3111,
      "ĠBra": 3112,
      "alled": 3113,
      "Ġexec": 3114,
      "upt": 3115,
      "oyal": 3116,
      "Ġprograms": 3117,
      "Ġcirc": 3118,
      "ĠSystem": 3119,
      "Ġcitiz": 3120,
      "Ġreasons": 3121,
      "eck": 3122,
      "ĠDen": 3123,
      "Ġatm": 3124,
      "ĠOld": 3125,
      "Ġcontain": 3126,
      "ĠFrancis": 3127,
      "field": 3128,
      "itect": 3129,
      "alax": 3130,
      "Ġfer": 3131,
      "asion": 3132,
      "ston": 3133,
      "Ġones": 3134,
      "ume": 3135,
      "ĠGames": 3136,
      "Ġ28": 3137,
      "Ġ184": 3138,
      "Ġquant": 3139,
      "Ġeasily": 3140,
      "board": 3141,
      "Ġfrequ": 3142,
      "Ġenvironment": 3143,
      "11": 3144,
      "One": 3145,
      "eum": 3146,
      "eds": 3147,
      "Ġdeb": 3148,
      "Ġelement": 3149,
      "Ġcontains": 3150,
      "Ġ40": 3151,
      "ĠMario": 3152,
      "ancy": 3153,
      "ospital": 3154,
      "Ġavail": 3155,
      "Ġpressure": 3156,
      ".)": 3157,
      "oid": 3158,
      "heast": 3159,
      "ential": 3160,
      "Ġbelow": 3161,
      "Ġreb": 3162,
      "ĠRome": 3163,
      "Ġwriter": 3164,
      "Ġ2012": 3165,
      "Ġ2013": 3166,
      "Ġtransl": 3167,
      "Ġnearly": 3168,
      "Ġtowns": 3169,
      "Ġparticles": 3170,
      "Ġjoin": 3171,
      "Ġnormally": 3172,
      "Ġpeace": 3173,
      "oon": 3174,
      "over": 3175,
      "Ġiron": 3176,
      "estic": 3177,
      "anto": 3178,
      "ables": 3179,
      "Ġcenturies": 3180,
      "Ġspecific": 3181,
      "ĠMinister": 3182,
      "ĠAtlantic": 3183,
      "Ġbul": 3184,
      "Ġmagn": 3185,
      "Ġpian": 3186,
      "uture": 3187,
      "Ġunits": 3188,
      "Ġattem": 3189,
      "Ġmilk": 3190,
      "Ġkingdom": 3191,
      "Ġindependence": 3192,
      "ercury": 3193,
      "hab": 3194,
      "arks": 3195,
      "Ġmid": 3196,
      "ĠPal": 3197,
      "ĠDr": 3198,
      "peror": 3199,
      "Ġsoil": 3200,
      "rows": 3201,
      "ĠChristmas": 3202,
      "ĠJews": 3203,
      "Ġthousands": 3204,
      "Ġhon": 3205,
      "Ġgir": 3206,
      "Ġship": 3207,
      "ĠIsland": 3208,
      "Ġdistance": 3209,
      "Ġresearch": 3210,
      "60": 3211,
      "Ġsal": 3212,
      "Ġdang": 3213,
      "Ġreach": 3214,
      "ĠBar": 3215,
      "ĠUs": 3216,
      "Ġprison": 3217,
      "Ġ31": 3218,
      "Ġteach": 3219,
      "ĠArmy": 3220,
      "ologists": 3221,
      "Ġorganism": 3222,
      "Ġclear": 3223,
      "Ġhuge": 3224,
      "ĠWin": 3225,
      "ĠDav": 3226,
      "Ġexact": 3227,
      "Ġabort": 3228,
      "Ġclos": 3229,
      "Ġliter": 3230,
      "ĠAbout": 3231,
      "cules": 3232,
      "Ġbecomes": 3233,
      "ĠGovern": 3234,
      "oint": 3235,
      "Ġtall": 3236,
      "het": 3237,
      "Ġbacter": 3238,
      "itzer": 3239,
      "Ġmess": 3240,
      "Ġpow": 3241,
      "Ġthin": 3242,
      "ĠBo": 3243,
      "ĠFirst": 3244,
      "ĠNap": 3245,
      "Ġprevent": 3246,
      "Ġwarm": 3247,
      "ready": 3248,
      "Ġtitle": 3249,
      "Ġkilomet": 3250,
      "Be": 3251,
      "uf": 3252,
      "Ġocean": 3253,
      "Ġfoc": 3254,
      "Ġrare": 3255,
      "Ġ29": 3256,
      "osis": 3257,
      "abeth": 3258,
      "wood": 3259,
      "Ġbelong": 3260,
      "Ġtransport": 3261,
      "Ġsett": 3262,
      "obert": 3263,
      "Ġvote": 3264,
      "Ġtraditional": 3265,
      "All": 3266,
      "wide": 3267,
      "ying": 3268,
      "Ġastronom": 3269,
      "Ġwave": 3270,
      "orer": 3271,
      "Ġdie": 3272,
      "opes": 3273,
      "ounts": 3274,
      "ĠLake": 3275,
      "Ġdecl": 3276,
      "Ġsurround": 3277,
      "Ġsimply": 3278,
      "Ġfarm": 3279,
      "Ġgrowing": 3280,
      "ĠProt": 3281,
      "Ġelse": 3282,
      "ĠVietnam": 3283,
      "Ġavailable": 3284,
      "coh": 3285,
      "sw": 3286,
      "Ġtable": 3287,
      "Ġsch": 3288,
      "Ġlines": 3289,
      "Ġleave": 3290,
      "ĠRevolution": 3291,
      "Ġequal": 3292,
      "Ġoperating": 3293,
      "Ġasked": 3294,
      "Ġdestroyed": 3295,
      "Ġsympt": 3296,
      "Ġprobably": 3297,
      "km": 3298,
      "Ġcases": 3299,
      "izabeth": 3300,
      "rael": 3301,
      "iki": 3302,
      "Ġdefin": 3303,
      "echan": 3304,
      "ĠPoland": 3305,
      "Ġbehav": 3306,
      "Ġbecoming": 3307,
      "Ġearlier": 3308,
      "war": 3309,
      "anch": 3310,
      "Ġcle": 3311,
      "Ġbur": 3312,
      "icle": 3313,
      "Ġdog": 3314,
      "ĠSom": 3315,
      "ĠSch": 3316,
      "Ġalready": 3317,
      "Ġorbit": 3318,
      "Ġmeat": 3319,
      "Ġproduction": 3320,
      "Ġshowed": 3321,
      "Ġfeatures": 3322,
      "ĠConf": 3323,
      "ĠWhile": 3324,
      "If": 3325,
      "gor": 3326,
      "Ġfac": 3327,
      "ĠAlex": 3328,
      "ĠBuddh": 3329,
      "umin": 3330,
      "apore": 3331,
      "ĠFord": 3332,
      "Ġ26": 3333,
      "Ġconstitution": 3334,
      "ighb": 3335,
      "Ġabs": 3336,
      "ĠPrime": 3337,
      "Ġofficially": 3338,
      "Ġcommunity": 3339,
      "Ġveget": 3340,
      "eg": 3341,
      "wan": 3342,
      "Ġ&": 3343,
      "asc": 3344,
      "Ġ2014": 3345,
      "Ġactually": 3346,
      "Ġslaves": 3347,
      "Ġdescribe": 3348,
      "Ġmarket": 3349,
      "Ġalphabet": 3350,
      "Ġrich": 3351,
      "ĠJul": 3352,
      "ĠJose": 3353,
      "Ġneg": 3354,
      "ĠAncient": 3355,
      "Ġpoints": 3356,
      "Ġacid": 3357,
      "ĠComp": 3358,
      "Ġterms": 3359,
      "ship": 3360,
      "Ġbillion": 3361,
      "Ġfuture": 3362,
      "Ġteams": 3363,
      "Ġmusical": 3364,
      "Ġcover": 3365,
      "Ġneeds": 3366,
      "ĠQu": 3367,
      "ĠBefore": 3368,
      "Ġdescribed": 3369,
      "Ġpurp": 3370,
      "oor": 3371,
      "oke": 3372,
      "orb": 3373,
      "Ġmechan": 3374,
      "asts": 3375,
      "ĠMiss": 3376,
      "astle": 3377,
      "Ġcloth": 3378,
      "ĠAnne": 3379,
      "ĠZe": 3380,
      "Ġeasy": 3381,
      "Ġstandard": 3382,
      "ĠJewish": 3383,
      "light": 3384,
      "ried": 3385,
      "ĠSen": 3386,
      "oles": 3387,
      "vert": 3388,
      "Ġreached": 3389,
      "ĠMc": 3390,
      "ĠUK": 3391,
      "osexual": 3392,
      "Ġevolution": 3393,
      "play": 3394,
      "Ġflat": 3395,
      "ĠSwed": 3396,
      "Ġfriend": 3397,
      "Ġreturned": 3398,
      "mit": 3399,
      "erve": 3400,
      "reg": 3401,
      "rem": 3402,
      "Ġcost": 3403,
      "Ġmill": 3404,
      "ingapore": 3405,
      "ĠBro": 3406,
      "ĠGold": 3407,
      "apes": 3408,
      "Ġchurches": 3409,
      "peranto": 3410,
      "Ġstarts": 3411,
      "Ġphysics": 3412,
      "Ġarchitect": 3413,
      "avery": 3414,
      "rees": 3415,
      "ola": 3416,
      "ĠEastern": 3417,
      "ument": 3418,
      "berg": 3419,
      "Ġunit": 3420,
      "ĠChicago": 3421,
      "ĠFrom": 3422,
      "Ġfeature": 3423,
      "Ġremoved": 3424,
      "Ġcontrolled": 3425,
      "ĠTV": 3426,
      "Ġnative": 3427,
      "Ġnature": 3428,
      "stant": 3429,
      "ote": 3430,
      "ĠEven": 3431,
      "Ġheavy": 3432,
      "Ġrate": 3433,
      "Ġconqu": 3434,
      "ĠJe": 3435,
      "onds": 3436,
      "Ġserved": 3437,
      "Ġnovel": 3438,
      "ĠIsrael": 3439,
      "199": 3440,
      "Ġservices": 3441,
      "Ġvalue": 3442,
      "New": 3443,
      "che": 3444,
      "uke": 3445,
      "Ġapart": 3446,
      "Ġcoup": 3447,
      "icts": 3448,
      "ĠSchool": 3449,
      "ĠThom": 3450,
      "astic": 3451,
      "Ġlikely": 3452,
      "Ġ2016": 3453,
      "Ġpoll": 3454,
      "Ġowned": 3455,
      "ification": 3456,
      "Ġeastern": 3457,
      "Ġscientific": 3458,
      "Ġsymptoms": 3459,
      "isl": 3460,
      "icy": 3461,
      "iding": 3462,
      "Ġvo": 3463,
      "Ġleaves": 3464,
      "Ġwhose": 3465,
      "Ġhelps": 3466,
      "Ġstopped": 3467,
      "Ġdiseases": 3468,
      "Ġphysical": 3469,
      "Ġinfluence": 3470,
      "Ġmodel": 3471,
      "ĠVirginia": 3472,
      "Ġtro": 3473,
      "ero": 3474,
      "Ġwalk": 3475,
      "Ġdoc": 3476,
      "see": 3477,
      "Ġ60": 3478,
      "Ġwidely": 3479,
      "Ġintroduced": 3480,
      "30": 3481,
      "atory": 3482,
      "aland": 3483,
      "Ġdio": 3484,
      "ĠIra": 3485,
      "ĠWales": 3486,
      "Ġspir": 3487,
      "Ġdeep": 3488,
      "Ġ1999": 3489,
      "Ġlots": 3490,
      "Ġmiles": 3491,
      "Ġeffects": 3492,
      "Ġoccup": 3493,
      "ĠCongress": 3494,
      "Ġatmosphere": 3495,
      "Ġsnow": 3496,
      "atar": 3497,
      "Ġfig": 3498,
      "Ġlic": 3499,
      "olf": 3500,
      "ida": 3501,
      "Ġforced": 3502,
      "uted": 3503,
      "Ġcoll": 3504,
      "Ġpersonal": 3505,
      "ĠFrank": 3506,
      "Ġeveryone": 3507,
      "Ġaccording": 3508,
      "ĠAngeles": 3509,
      "Ġoriginally": 3510,
      "Ġetc": 3511,
      "rect": 3512,
      "Ġsail": 3513,
      "ising": 3514,
      "Ġbar": 3515,
      "Ġmind": 3516,
      "asing": 3517,
      "Ġalcoh": 3518,
      "Ġleap": 3519,
      "Ġactive": 3520,
      "Ġgrowth": 3521,
      "Ġpassed": 3522,
      "Ġturned": 3523,
      "Ġphilosop": 3524,
      "itzerland": 3525,
      "Com": 3526,
      "lies": 3527,
      "Ġfly": 3528,
      "ĠTex": 3529,
      "ilies": 3530,
      "Ġreally": 3531,
      "ĠMore": 3532,
      "Ġregular": 3533,
      "ledge": 3534,
      "Ġcultures": 3535,
      "Ġprogramm": 3536,
      "ĠCommun": 3537,
      "Ġinstruments": 3538,
      "Ġterritory": 3539,
      "Ġstructure": 3540,
      "ĠSam": 3541,
      "Ġ\"\"": 3542,
      "Ġstep": 3543,
      "akistan": 3544,
      "ube": 3545,
      "Ġ2020": 3546,
      "Ġcovered": 3547,
      "Ġquite": 3548,
      "Ġsigned": 3549,
      "reedom": 3550,
      "Ġlearned": 3551,
      "Ġtells": 3552,
      "Ġsuggest": 3553,
      "Ġelectricity": 3554,
      "Ġdrugs": 3555,
      "Ġmammals": 3556,
      "Ġdioxide": 3557,
      "aign": 3558,
      "lished": 3559,
      "Ġtaking": 3560,
      "anes": 3561,
      "Ġcand": 3562,
      "Ġhours": 3563,
      "Ġbeaut": 3564,
      "Ġgun": 3565,
      "ĠMos": 3566,
      "ĠRog": 3567,
      "ĠLin": 3568,
      "endo": 3569,
      "Ġeverything": 3570,
      "Ġelectron": 3571,
      "Ġ179": 3572,
      "Mar": 3573,
      "band": 3574,
      "ffer": 3575,
      "inces": 3576,
      "Ġself": 3577,
      "Ġbank": 3578,
      "Ġgrown": 3579,
      "ador": 3580,
      "ĠMac": 3581,
      "ĠPac": 3582,
      "ĠNo": 3583,
      "ĠLos": 3584,
      "cles": 3585,
      "Ġparties": 3586,
      "amples": 3587,
      "Ġweb": 3588,
      "Ġweather": 3589,
      "Ġstudents": 3590,
      "Ġbring": 3591,
      "ĠChristians": 3592,
      "Ġversions": 3593,
      "ĠParliament": 3594,
      "ĠChristianity": 3595,
      "Ġphilosophy": 3596,
      "Ġannounced": 3597,
      "ĠMuslims": 3598,
      "ĠÃ": 3599,
      "instein": 3600,
      "Ġlo": 3601,
      "Ġliber": 3602,
      "use": 3603,
      "ĠMad": 3604,
      "ĠPers": 3605,
      "ĠRes": 3606,
      "ĠNorm": 3607,
      "tens": 3608,
      "Ġ187": 3609,
      "Ġprovince": 3610,
      "ĠWhite": 3611,
      "Ġcomplex": 3612,
      "Ġfunction": 3613,
      "ĠRomans": 3614,
      "ĠOlympic": 3615,
      "Ġmolecules": 3616,
      "ĠIraq": 3617,
      "Sh": 3618,
      "time": 3619,
      "Ġcard": 3620,
      "Ġoffer": 3621,
      "Ġdial": 3622,
      "Ġgalax": 3623,
      "ĠHit": 3624,
      "ĠSte": 3625,
      "Ġpolice": 3626,
      "ĠRepublican": 3627,
      "Ġmajority": 3628,
      "Ġweeks": 3629,
      "ĠEsperanto": 3630,
      "Ġnetwork": 3631,
      "Sp": 3632,
      "zil": 3633,
      "Ã³": 3634,
      "Ġwaves": 3635,
      "ato": 3636,
      "ĠAD": 3637,
      "ĠMand": 3638,
      "ĠRed": 3639,
      "Ġdifference": 3640,
      "Ġproduct": 3641,
      "ĠGreen": 3642,
      "ĠExpl": 3643,
      "Ġcopper": 3644,
      "Ġforeign": 3645,
      "ĠDisney": 3646,
      "off": 3647,
      "Ġther": 3648,
      "erals": 3649,
      "Ġsides": 3650,
      "Ġmic": 3651,
      "amin": 3652,
      "ĠSim": 3653,
      "ĠHam": 3654,
      "iful": 3655,
      "ĠDNA": 3656,
      "earch": 3657,
      "Ġuseful": 3658,
      "ĠAlthough": 3659,
      "ĠGeorg": 3660,
      "ĠIran": 3661,
      "Ġeventually": 3662,
      "Ġpictures": 3663,
      "Pl": 3664,
      "pro": 3665,
      "uh": 3666,
      "Ġcrop": 3667,
      "Ġcode": 3668,
      "Ġmur": 3669,
      "ouble": 3670,
      "ĠSaint": 3671,
      "Ġren": 3672,
      "ĠMart": 3673,
      "Ġ27": 3674,
      "Ġsplit": 3675,
      "Ġsecret": 3676,
      "intendo": 3677,
      "Ġspeech": 3678,
      "Ġmedia": 3679,
      "Ġconditions": 3680,
      "ĠMoroc": 3681,
      "Ġcitizens": 3682,
      "Tr": 3683,
      "Ġfoss": 3684,
      "icks": 3685,
      "Ġhouses": 3686,
      "Ġnoun": 3687,
      "etro": 3688,
      "ĠMod": 3689,
      "Ġround": 3690,
      "ĠRec": 3691,
      "Ġevidence": 3692,
      "ĠLeon": 3693,
      "Ġfourth": 3694,
      "uese": 3695,
      "ĠCounty": 3696,
      "Ġbacteria": 3697,
      "ran": 3698,
      "Ġpsych": 3699,
      "Ġeyes": 3700,
      "olk": 3701,
      "ady": 3702,
      "Ġconstr": 3703,
      "Ġpron": 3704,
      "Ġcolors": 3705,
      "Ġkey": 3706,
      "Ġpresidential": 3707,
      "Ġdeterm": 3708,
      "ĠPacific": 3709,
      "utions": 3710,
      "Ġorg": 3711,
      "ĠGal": 3712,
      "Ġsuic": 3713,
      "Ġ185": 3714,
      "Ġweak": 3715,
      "Ġcentre": 3716,
      "ploy": 3717,
      "Ġactiv": 3718,
      "ĠYou": 3719,
      "Ġeasier": 3720,
      "Ġopposite": 3721,
      "Ġprivate": 3722,
      "hood": 3723,
      "Ġtaught": 3724,
      "Ġbodies": 3725,
      "Ġfaster": 3726,
      "Ġdon": 3727,
      "ider": 3728,
      "Ġheav": 3729,
      "try": 3730,
      "ghan": 3731,
      "Ġsele": 3732,
      "Ġteeth": 3733,
      "Ġesc": 3734,
      "ministr": 3735,
      "Ġmachine": 3736,
      "Ġrisk": 3737,
      "Ġvacc": 3738,
      "Americ": 3739,
      "cour": 3740,
      "iage": 3741,
      "nic": 3742,
      "uits": 3743,
      "ving": 3744,
      "Ġaward": 3745,
      "Ġwars": 3746,
      "orough": 3747,
      "ĠSingapore": 3748,
      "ĠAccording": 3749,
      "ĠDemocratic": 3750,
      "Ġdoctors": 3751,
      "Ġmoves": 3752,
      "Ġinvol": 3753,
      "Ġsubject": 3754,
      "ynast": 3755,
      "Ġmeasured": 3756,
      "Ġestablished": 3757,
      "Ġwrong": 3758,
      "Other": 3759,
      "called": 3760,
      "Ġille": 3761,
      "ĠOver": 3762,
      "Ġdoctor": 3763,
      "Ġprint": 3764,
      "Ġprincip": 3765,
      "ensive": 3766,
      "Ġgovernor": 3767,
      "Ġ1996": 3768,
      "Ġrunning": 3769,
      "Ġcalcul": 3770,
      "ĠSwitzerland": 3771,
      "Ġtreatment": 3772,
      "ĠElizabeth": 3773,
      "inos": 3774,
      "ena": 3775,
      "arl": 3776,
      "ĠSal": 3777,
      "ademy": 3778,
      "ĠCa": 3779,
      "Ġstage": 3780,
      "ĠEle": 3781,
      "Ġfruit": 3782,
      "These": 3783,
      "ĠVen": 3784,
      "ails": 3785,
      "Ġpoet": 3786,
      "Ġfeet": 3787,
      "ĠJane": 3788,
      "Ġcommunic": 3789,
      "ĠCommon": 3790,
      "Ġnucle": 3791,
      "ĠHawai": 3792,
      "met": 3793,
      "Ġsum": 3794,
      "Ġdel": 3795,
      "ĠMars": 3796,
      "ears": 3797,
      "Ġsport": 3798,
      "Ġshoot": 3799,
      "ocks": 3800,
      "Ġinvolved": 3801,
      "Ġlooks": 3802,
      "Ġglob": 3803,
      "Ġbaby": 3804,
      "Ġuniversities": 3805,
      "ream": 3806,
      "Ġcust": 3807,
      "ician": 3808,
      "Ġlik": 3809,
      "othes": 3810,
      "ayer": 3811,
      "urity": 3812,
      "ĠLa": 3813,
      "Ġsuffer": 3814,
      "upiter": 3815,
      "Ġjud": 3816,
      "Ġneighb": 3817,
      "Ġworldwide": 3818,
      "ĠScott": 3819,
      "Ġpicture": 3820,
      "ĠRichard": 3821,
      "iop": 3822,
      "Ġtowards": 3823,
      "ĠTwo": 3824,
      "Ġ2018": 3825,
      "Ġstudies": 3826,
      "Ġ1950": 3827,
      "Ġcareer": 3828,
      "Ġmaterials": 3829,
      "ĠExplorer": 3830,
      "oo": 3831,
      "Ġterr": 3832,
      "inct": 3833,
      "onald": 3834,
      "Ġpun": 3835,
      "urs": 3836,
      "ĠHigh": 3837,
      "chie": 3838,
      "ĠNintendo": 3839,
      "Ġagreed": 3840,
      "Ġserious": 3841,
      "Ġ1995": 3842,
      "istry": 3843,
      "ĠCouncil": 3844,
      "Ġmathematics": 3845,
      "ken": 3846,
      "iny": 3847,
      "isions": 3848,
      "Ġbeg": 3849,
      "ĠAct": 3850,
      "imens": 3851,
      "iday": 3852,
      "ĠPe": 3853,
      "ĠOf": 3854,
      "Ġdeal": 3855,
      "ardo": 3856,
      "Ġcool": 3857,
      "Ġsolid": 3858,
      "Ġsugar": 3859,
      "Ġcampaign": 3860,
      "Le": 3861,
      "do": 3862,
      "Ġbott": 3863,
      "ican": 3864,
      "Ġnut": 3865,
      "uth": 3866,
      "Ġassoci": 3867,
      "Ġord": 3868,
      "ĠPakistan": 3869,
      "Ġvict": 3870,
      "Ġenj": 3871,
      "Ġtext": 3872,
      "Ġfamilies": 3873,
      "Ġmetals": 3874,
      "ĠPrince": 3875,
      "ropical": 3876,
      "Ġglass": 3877,
      "Ġtechnology": 3878,
      "ĠHindu": 3879,
      "ua": 3880,
      "Ġi": 3881,
      "rest": 3882,
      "Ġwild": 3883,
      "Ġborders": 3884,
      "Ġfa": 3885,
      "Ġhole": 3886,
      "Ġgender": 3887,
      "oln": 3888,
      "ĠCivil": 3889,
      "Ġstone": 3890,
      "unic": 3891,
      "Ġmoon": 3892,
      "ĠEth": 3893,
      "Ġran": 3894,
      "ively": 3895,
      "ques": 3896,
      "Ġadult": 3897,
      "Ġweight": 3898,
      "Ġwebs": 3899,
      "Ġcrime": 3900,
      "Ġincrease": 3901,
      "Ġraised": 3902,
      "cks": 3903,
      "also": 3904,
      "ĠNow": 3905,
      "ĠNative": 3906,
      "Ġarm": 3907,
      "ections": 3908,
      "Ġ180": 3909,
      "ffee": 3910,
      "Ġslavery": 3911,
      "Ġdivor": 3912,
      "Ġknowledge": 3913,
      "ĠIslamic": 3914,
      "Ġindividual": 3915,
      "uminium": 3916,
      "inet": 3917,
      "Ġsick": 3918,
      "Ġmal": 3919,
      "Ġmouth": 3920,
      "Ġface": 3921,
      "Ġinj": 3922,
      "Ġhospital": 3923,
      "Ġdiam": 3924,
      "ĠSa": 3925,
      "ĠStr": 3926,
      "ĠBoth": 3927,
      "illa": 3928,
      "abb": 3929,
      "acks": 3930,
      "izes": 3931,
      "enses": 3932,
      "Ġlocated": 3933,
      "Ġconnected": 3934,
      "ĠGeneral": 3935,
      "Ġlaun": 3936,
      "ĠPortuguese": 3937,
      "Ġpiano": 3938,
      "ĠNapole": 3939,
      "Ġclean": 3940,
      "den": 3941,
      "krain": 3942,
      "Ġpost": 3943,
      "Ġfinal": 3944,
      "ĠHall": 3945,
      "ĠHung": 3946,
      "Ġgrand": 3947,
      "Ġrecent": 3948,
      "ĠAfghan": 3949,
      "Ġaccess": 3950,
      "Ġhands": 3951,
      "Ġmagaz": 3952,
      "ĠMichael": 3953,
      "Ġdomestic": 3954,
      "ĠTexas": 3955,
      "writ": 3956,
      "Ġsense": 3957,
      "onia": 3958,
      "Ġlink": 3959,
      "rog": 3960,
      "Ġspent": 3961,
      "arden": 3962,
      "Ġnewsp": 3963,
      "Ġbridge": 3964,
      "Ġscr": 3965,
      "ĠColle": 3966,
      "Ġprovinces": 3967,
      "ĠAustria": 3968,
      "Ġsteel": 3969,
      "ĠCuba": 3970,
      "ĠJoseph": 3971,
      "ners": 3972,
      "Ġsalt": 3973,
      "isp": 3974,
      "Ġmental": 3975,
      "Ġtools": 3976,
      "Ġrap": 3977,
      "ĠRobert": 3978,
      "ternal": 3979,
      "ricult": 3980,
      "Ġ2017": 3981,
      "Ġends": 3982,
      "Ġaddress": 3983,
      "Ġinsects": 3984,
      "Ġgiving": 3985,
      "Ġminor": 3986,
      "Ġeaten": 3987,
      "Ġfinished": 3988,
      "ĠBelg": 3989,
      "elesc": 3990,
      "Ġcaptured": 3991,
      ".,": 3992,
      "21": 3993,
      "80": 3994,
      "dr": 3995,
      "na": 3996,
      "such": 3997,
      "ani": 3998,
      "Ġbit": 3999,
      "ari": 4000,
      "Ġmyth": 4001,
      "Ġnomin": 4002,
      "ĠSouthern": 4003,
      "ĠAges": 4004,
      "iff": 4005,
      "ĠRh": 4006,
      "ĠNob": 4007,
      "Ġcommer": 4008,
      "Ġconc": 4009,
      "Ġshare": 4010,
      "Ġallows": 4011,
      "Ġgrad": 4012,
      "ĠVal": 4013,
      "Ġbands": 4014,
      "incoln": 4015,
      "Ġcultural": 4016,
      "Ġopened": 4017,
      "III": 4018,
      "Ġperformed": 4019,
      "cial": 4020,
      "sen": 4021,
      "well": 4022,
      "Ġsle": 4023,
      "Ġcars": 4024,
      "Ġdate": 4025,
      "ĠAg": 4026,
      "olitan": 4027,
      "ĠCor": 4028,
      "Ġstation": 4029,
      "Ġstore": 4030,
      "ela": 4031,
      "Ġrank": 4032,
      "ĠNot": 4033,
      "aked": 4034,
      "Ġdisorder": 4035,
      "Ġadop": 4036,
      "Ġ1991": 4037,
      "Ġflag": 4038,
      "Ġlands": 4039,
      "Ġ1989": 4040,
      "ĠIslands": 4041,
      "ĠOnly": 4042,
      "Ġartists": 4043,
      "ĠRomania": 4044,
      "Ġruns": 4045,
      "Ġgreatest": 4046,
      "Ġpaint": 4047,
      "Ġdirectly": 4048,
      "40": 4049,
      "Ph": 4050,
      "ca": 4051,
      "cast": 4052,
      "uals": 4053,
      "Ġ+": 4054,
      "rel": 4055,
      "Ġsister": 4056,
      "Ġdemocr": 4057,
      "ament": 4058,
      "irt": 4059,
      "Ġanything": 4060,
      "Ġamounts": 4061,
      "Ġpolitics": 4062,
      "Ġincreased": 4063,
      "Ġdesigned": 4064,
      "Ġbehind": 4065,
      "Ġgods": 4066,
      "Ġstayed": 4067,
      "Ġmedicine": 4068,
      "Ġabortion": 4069,
      "ĠHitler": 4070,
      "ares": 4071,
      "hi": 4072,
      "aters": 4073,
      "Ġmy": 4074,
      "Ġfix": 4075,
      "Ġdict": 4076,
      "ĠSolar": 4077,
      "Ġemb": 4078,
      "apers": 4079,
      "istics": 4080,
      "Ġplaced": 4081,
      "Ġchanging": 4082,
      "Ġcopies": 4083,
      "lorida": 4084,
      "Ġdangerous": 4085,
      "ĠDavid": 4086,
      "gress": 4087,
      "Ġsite": 4088,
      "Ġinhab": 4089,
      "Ġgre": 4090,
      "ĠCat": 4091,
      "ĠPat": 4092,
      "ĠUkrain": 4093,
      "Ġgrass": 4094,
      "ĠVi": 4095,
      "Ġblock": 4096,
      "Ġdrive": 4097,
      "Ġgoods": 4098,
      "Ġ1945": 4099,
      "ĠIII": 4100,
      "Ġchemicals": 4101,
      "ĠKorean": 4102,
      "Ġdistricts": 4103,
      "Ġforests": 4104,
      "ĠFinland": 4105,
      "Ġcritic": 4106,
      "Ġenjoy": 4107,
      "more": 4108,
      "erry": 4109,
      "Ġbass": 4110,
      "orter": 4111,
      "ĠBay": 4112,
      "ĠEvery": 4113,
      "Ġcontract": 4114,
      "osen": 4115,
      "iana": 4116,
      "Ġsure": 4117,
      "ĠKh": 4118,
      "ĠMarx": 4119,
      "Ġ1975": 4120,
      "Ġmemory": 4121,
      "Ġattacked": 4122,
      "Ġextreme": 4123,
      "Ġcompletely": 4124,
      "ĠBrazil": 4125,
      "ĠProtest": 4126,
      "ĠThomas": 4127,
      "Fr": 4128,
      "Ġcer": 4129,
      "Ġcart": 4130,
      "Ġthick": 4131,
      "uther": 4132,
      "ĠBas": 4133,
      "ĠWil": 4134,
      "ĠRoyal": 4135,
      "ĠDes": 4136,
      "Ġuniversity": 4137,
      "elled": 4138,
      "Ġadministr": 4139,
      "Ġ2019": 4140,
      "cript": 4141,
      "Ġreaction": 4142,
      "Ġjobs": 4143,
      "Ġfurther": 4144,
      "rich": 4145,
      "spe": 4146,
      "year": 4147,
      "Ġtar": 4148,
      "Ġbox": 4149,
      "Ġbattle": 4150,
      "adium": 4151,
      "imb": 4152,
      "Ġhere": 4153,
      "Ġuser": 4154,
      "Ġdifferences": 4155,
      "Ġsmallest": 4156,
      "ictor": 4157,
      "Ġ1998": 4158,
      "azz": 4159,
      "Ġfemin": 4160,
      "Ġestim": 4161,
      "Ġindustrial": 4162,
      "Ġreferred": 4163,
      "ĠDenmark": 4164,
      "Ġclothing": 4165,
      "ients": 4166,
      "itation": 4167,
      "Ġhear": 4168,
      "Ġpoison": 4169,
      "Ġethnic": 4170,
      "ĠAcademy": 4171,
      "Ġpowers": 4172,
      "Ġdeclared": 4173,
      "Ġnegative": 4174,
      "ynasty": 4175,
      "inks": 4176,
      "eration": 4177,
      "Ġbreat": 4178,
      "Ġfit": 4179,
      "lets": 4180,
      "Ġeye": 4181,
      "Ġrevolution": 4182,
      "imal": 4183,
      "ĠCorn": 4184,
      "Ġstra": 4185,
      "ĠHem": 4186,
      "ĠBattle": 4187,
      "ify": 4188,
      "iffer": 4189,
      "Ġvice": 4190,
      "hedral": 4191,
      "insula": 4192,
      "airs": 4193,
      "Ġcontinue": 4194,
      "Ġveh": 4195,
      "Ġrespect": 4196,
      "Ġpattern": 4197,
      "Ġobserv": 4198,
      "Ġlimited": 4199,
      "Ġexactly": 4200,
      "Ġmurder": 4201,
      "23": 4202,
      "ny": 4203,
      "tes": 4204,
      "isters": 4205,
      "Ġbought": 4206,
      "Ġansw": 4207,
      "oma": 4208,
      "ĠMat": 4209,
      "ecess": 4210,
      "ĠPan": 4211,
      "ava": 4212,
      "Ġelections": 4213,
      "Ġqueen": 4214,
      "Ġ1994": 4215,
      "Ġslowly": 4216,
      "Ġchoose": 4217,
      "Ġgravity": 4218,
      "Ġsuicide": 4219,
      "Ġillegal": 4220,
      "Pr": 4221,
      "gent": 4222,
      "uation": 4223,
      "za": 4224,
      "Ġ=": 4225,
      "Ġtun": 4226,
      "arning": 4227,
      "Ġfif": 4228,
      "Ġnick": 4229,
      "ĠAwards": 4230,
      "adian": 4231,
      "Ġreform": 4232,
      "ĠBah": 4233,
      "Ġworship": 4234,
      "Ġrelative": 4235,
      "atherine": 4236,
      "Ġdefined": 4237,
      "Ġdepending": 4238,
      "ĠCarol": 4239,
      "Ġmarriage": 4240,
      "Ġ2021": 4241,
      "ĠTurkey": 4242,
      "Ġattempt": 4243,
      "Ġbeautiful": 4244,
      "ona": 4245,
      "orks": 4246,
      "Ġfung": 4247,
      "Ġ()": 4248,
      "semb": 4249,
      "ĠFlorida": 4250,
      "ĠLaw": 4251,
      "Ġcoming": 4252,
      "Ġextra": 4253,
      "Ġshot": 4254,
      "ĠStre": 4255,
      "Ġcolony": 4256,
      "Ġreprod": 4257,
      "aiwan": 4258,
      "Ġrecords": 4259,
      "Ġseparated": 4260,
      "Ġimmigr": 4261,
      "Ġearliest": 4262,
      "view": 4263,
      "Ġlayer": 4264,
      "ĠBerlin": 4265,
      "ĠSocial": 4266,
      "Ġalcohol": 4267,
      "ĠEthiop": 4268,
      "25": 4269,
      "We": 4270,
      "Ġcards": 4271,
      "Ġbomb": 4272,
      "Ġanal": 4273,
      "ita": 4274,
      "Ġfell": 4275,
      "Ġlakes": 4276,
      "Ġthr": 4277,
      "ĠBest": 4278,
      "andy": 4279,
      "anded": 4280,
      "ĠEinstein": 4281,
      "uments": 4282,
      "ctic": 4283,
      "Ġrocks": 4284,
      "ĠArch": 4285,
      "Ġbeliefs": 4286,
      "ĠBeat": 4287,
      "anean": 4288,
      "Ġsounds": 4289,
      "Ġsymbols": 4290,
      "Ġdevice": 4291,
      "gl": 4292,
      "gar": 4293,
      "iterr": 4294,
      "Ġmel": 4295,
      "omm": 4296,
      "Ġthreat": 4297,
      "enty": 4298,
      "Ġstations": 4299,
      "uls": 4300,
      "iant": 4301,
      "avor": 4302,
      "Ġknew": 4303,
      "Ġbroke": 4304,
      "Ġattacks": 4305,
      "ĠAfghanistan": 4306,
      "24": 4307,
      "De": 4308,
      "lied": 4309,
      "Ġsat": 4310,
      "edia": 4311,
      "arter": 4312,
      "omer": 4313,
      "ulation": 4314,
      "Ġrings": 4315,
      "ĠOtt": 4316,
      "Ġyet": 4317,
      "Ġcoal": 4318,
      "Ġresour": 4319,
      "Ġresults": 4320,
      "Ġparliament": 4321,
      "Ġcommunist": 4322,
      "Ġradiation": 4323,
      "ĠIrish": 4324,
      "ĠConfeder": 4325,
      "iterranean": 4326,
      "Since": 4327,
      "cher": 4328,
      "zt": 4329,
      "ises": 4330,
      "ono": 4331,
      "ĠTor": 4332,
      "Ġaluminium": 4333,
      "asturb": 4334,
      "outheast": 4335,
      "Ġimage": 4336,
      "Ġteac": 4337,
      "Ġ2015": 4338,
      "oven": 4339,
      "ressed": 4340,
      "Ġscale": 4341,
      "Ġleading": 4342,
      "Ġremains": 4343,
      "Ġ90": 4344,
      "Ġdirection": 4345,
      "ĠPlay": 4346,
      "Ġimmedi": 4347,
      "Ġtreated": 4348,
      "Ġ2022": 4349,
      "Ġtrying": 4350,
      "Ġinstrument": 4351,
      "Ġholes": 4352,
      "Bl": 4353,
      "chest": 4354,
      "fall": 4355,
      "nd": 4356,
      "ativity": 4357,
      "Ġfle": 4358,
      "ĠAge": 4359,
      "Ġrev": 4360,
      "ĠEr": 4361,
      "ĠJupiter": 4362,
      "Ġsequ": 4363,
      "Ġagricult": 4364,
      "Ġcommit": 4365,
      "Ġstring": 4366,
      "everal": 4367,
      "Ġflu": 4368,
      "Ġcorrect": 4369,
      "Ġlevels": 4370,
      "Ġinfluenced": 4371,
      "Ġmixed": 4372,
      "Ġhundreds": 4373,
      "Ġtouch": 4374,
      "Ġtroops": 4375,
      "ĠMorocco": 4376,
      "ĠNapoleon": 4377,
      "ĠCollege": 4378,
      "To": 4379,
      "alia": 4380,
      "alities": 4381,
      "ĠTim": 4382,
      "Ġconcer": 4383,
      "aker": 4384,
      "Ġlearning": 4385,
      "Ġcloud": 4386,
      "Ġcoffee": 4387,
      "Ġdesert": 4388,
      "Ġdecide": 4389,
      "Ġlegisl": 4390,
      "ĠGregor": 4391,
      "Ġproperty": 4392,
      "Ġthousand": 4393,
      "Ġsurvive": 4394,
      "Ġdegree": 4395,
      "Ġaccepted": 4396,
      "Ġreported": 4397,
      "ĠGeorgia": 4398,
      "cow": 4399,
      "Ġtal": 4400,
      "atre": 4401,
      "Ġboy": 4402,
      "Ġbatter": 4403,
      "Ġhorm": 4404,
      "Ġhurt": 4405,
      "Ġnine": 4406,
      "ado": 4407,
      "acts": 4408,
      "igan": 4409,
      "umn": 4410,
      "aine": 4411,
      "Ġheight": 4412,
      "ĠGe": 4413,
      "ĠLincoln": 4414,
      "ateg": 4415,
      "ocol": 4416,
      "Ġ500": 4417,
      "Ġinvasion": 4418,
      "Ġsaying": 4419,
      "Ġtribes": 4420,
      "Ġexperience": 4421,
      "Ġdamage": 4422,
      "Ġcrops": 4423,
      "Because": 4424,
      "rd": 4425,
      "zy": 4426,
      "Ġsn": 4427,
      "Ġwine": 4428,
      "enc": 4429,
      "ala": 4430,
      "Ġpup": 4431,
      "ĠRock": 4432,
      "Ġseasons": 4433,
      "Ġtrain": 4434,
      "ightly": 4435,
      "Ġcompared": 4436,
      "ampions": 4437,
      "Ġagree": 4438,
      "Ġ183": 4439,
      "Ġblind": 4440,
      "Ġlongest": 4441,
      "Ġmusicians": 4442,
      "athers": 4443,
      "ĠNewton": 4444,
      "anced": 4445,
      "Ġscreen": 4446,
      "Ġconserv": 4447,
      "ĠEdward": 4448,
      "Ġrespons": 4449,
      "Ġflows": 4450,
      "Ġdiagn": 4451,
      "Ġobser": 4452,
      "Ġatomic": 4453,
      "Ġarchitecture": 4454,
      "ĠLinux": 4455,
      "American": 4456,
      "Ġstraight": 4457,
      "Ab": 4458,
      "Re": 4459,
      "rupt": 4460,
      "Ġâ": 4461,
      "Ġsend": 4462,
      "Ġpig": 4463,
      "Ġfreedom": 4464,
      "Ġlibr": 4465,
      "Ġnations": 4466,
      "Ġempire": 4467,
      "ĠWall": 4468,
      "iab": 4469,
      "akers": 4470,
      "oren": 4471,
      "Ġadults": 4472,
      "Ġroom": 4473,
      "Ġphr": 4474,
      "Ġ1997": 4475,
      "Ġfeed": 4476,
      "Ġsurger": 4477,
      "Ġ1973": 4478,
      "elsh": 4479,
      "Ġ80": 4480,
      "Ġparticle": 4481,
      "Ġsentence": 4482,
      "Ġzero": 4483,
      "Ġcurrently": 4484,
      "Ġpredict": 4485,
      "ĠAlexander": 4486,
      "bl": 4487,
      "water": 4488,
      "Ġá": 4489,
      "Ġtast": 4490,
      "Ġteen": 4491,
      "reement": 4492,
      "itor": 4493,
      "Ġpaid": 4494,
      "Ġhus": 4495,
      "Ġlif": 4496,
      "usion": 4497,
      "ĠCam": 4498,
      "Ġyellow": 4499,
      "izing": 4500,
      "Ġevil": 4501,
      "Ġ1974": 4502,
      "Ġremained": 4503,
      "Ġclassical": 4504,
      "Ġconduct": 4505,
      "ĠMediterranean": 4506,
      "Ġwalls": 4507,
      "ĠApple": 4508,
      "Ġcerem": 4509,
      "gle": 4510,
      "pite": 4511,
      "tain": 4512,
      "itch": 4513,
      "Ġmiss": 4514,
      "Ġmales": 4515,
      "astr": 4516,
      "ĠBab": 4517,
      "Ġrac": 4518,
      "ĠFootball": 4519,
      "ĠDan": 4520,
      "ĠDole": 4521,
      "resh": 4522,
      "ĠInstead": 4523,
      "Ġplate": 4524,
      "Ġvit": 4525,
      "Ġsafe": 4526,
      "Ġinvest": 4527,
      "ammad": 4528,
      "Ġnearby": 4529,
      "cycl": 4530,
      "Ġexplain": 4531,
      "Ġswe": 4532,
      "Ġmotion": 4533,
      "ĠSecret": 4534,
      "Ġdiscuss": 4535,
      "Ġmethods": 4536,
      "Ġburied": 4537,
      "ĠScottish": 4538,
      "John": 4539,
      "SR": 4540,
      "Ġachie": 4541,
      "ĠTaiwan": 4542,
      "ĠMass": 4543,
      "ability": 4544,
      "Ġcounties": 4545,
      "Ġeleph": 4546,
      "ropolitan": 4547,
      "Ġprovide": 4548,
      "Ġswim": 4549,
      "Ġtemperatures": 4550,
      "Ġpositive": 4551,
      "ĠCenter": 4552,
      "Ġrefers": 4553,
      "ĠSenate": 4554,
      "Ġbegins": 4555,
      "box": 4556,
      "life": 4557,
      "pts": 4558,
      "ville": 4559,
      "Ġtiss": 4560,
      "Ġtelesc": 4561,
      "itude": 4562,
      "Ġmom": 4563,
      "asm": 4564,
      "Ġder": 4565,
      "Ġden": 4566,
      "Ġlake": 4567,
      "emies": 4568,
      "odes": 4569,
      "They": 4570,
      "osing": 4571,
      "izations": 4572,
      "Ġstudio": 4573,
      "Ġrepublic": 4574,
      "enna": 4575,
      "Ġboard": 4576,
      "ĠArabic": 4577,
      "ĠFrancisco": 4578,
      "Ġorganisms": 4579,
      "ĠZealand": 4580,
      "ĠSweden": 4581,
      "Ġdemocracy": 4582,
      "Ġtarget": 4583,
      "Sup": 4584,
      "rig": 4585,
      "ini": 4586,
      "inger": 4587,
      "Ġdance": 4588,
      "ĠHug": 4589,
      "Ġchosen": 4590,
      "ĠVictor": 4591,
      "Ġdiss": 4592,
      "Ġcolour": 4593,
      "ĠQatar": 4594,
      "Ġvisited": 4595,
      "Ġanti": 4596,
      "Ġcircle": 4597,
      "ĠSecond": 4598,
      "Ġmachines": 4599,
      "ĠNorway": 4600,
      "Ġdegrees": 4601,
      "ĠLeonardo": 4602,
      "Ġliked": 4603,
      "Ġbottom": 4604,
      "oa": 4605,
      "Ġwants": 4606,
      "Ġbreed": 4607,
      "Ġfund": 4608,
      "ĠIll": 4609,
      "ements": 4610,
      "ĠLiber": 4611,
      "istor": 4612,
      "ĠJud": 4613,
      "ĠUN": 4614,
      "ĠStone": 4615,
      "igned": 4616,
      "Ġaction": 4617,
      "Ġactivity": 4618,
      "Ġprotons": 4619,
      "Another": 4620,
      "ĠTrans": 4621,
      "Ġimmune": 4622,
      "Ġfields": 4623,
      "Ġhorse": 4624,
      "Ġprimary": 4625,
      "Ġquestions": 4626,
      "Ġneutr": 4627,
      "ĠColumbia": 4628,
      "Ġillness": 4629,
      "Ġdefeated": 4630,
      "Ġdefinition": 4631,
      "27": 4632,
      "Brit": 4633,
      "col": 4634,
      "gender": 4635,
      "ture": 4636,
      "Ã¤": 4637,
      "Ġpers": 4638,
      "iced": 4639,
      "ĠTest": 4640,
      "enth": 4641,
      "ĠMag": 4642,
      "ĠEc": 4643,
      "illed": 4644,
      "ĠKe": 4645,
      "Ġclothes": 4646,
      "Ġupon": 4647,
      "Ġ1992": 4648,
      "ĠEuropeans": 4649,
      "Ġproducer": 4650,
      "Ġvariety": 4651,
      "ĠMoz": 4652,
      "Ġmotor": 4653,
      "Ġearthqu": 4654,
      "Ġquestion": 4655,
      "Ġsubstance": 4656,
      "Ġvillage": 4657,
      "Ġquantum": 4658,
      "ĠRogers": 4659,
      "ĠGregorian": 4660,
      "500": 4661,
      "Cl": 4662,
      "bra": 4663,
      "bury": 4664,
      "jan": 4665,
      "och": 4666,
      "Ġwatch": 4667,
      "onent": 4668,
      "atur": 4669,
      "Ġtox": 4670,
      "Ġisot": 4671,
      "umber": 4672,
      "ĠGame": 4673,
      "ĠDo": 4674,
      "Ġproject": 4675,
      "ĠAlb": 4676,
      "ĠArt": 4677,
      "obb": 4678,
      "Ġgovernments": 4679,
      "Ġhumid": 4680,
      "Ġinsp": 4681,
      "Ġinteract": 4682,
      "ĠCarib": 4683,
      "Ġlegs": 4684,
      "ĠGramm": 4685,
      "ĠPolish": 4686,
      "Ġvolume": 4687,
      "Ġverb": 4688,
      "ĠHoly": 4689,
      "Ġlabor": 4690,
      "Ġfailed": 4691,
      "uan": 4692,
      "Ġir": 4693,
      "Ġbrows": 4694,
      "ilities": 4695,
      "ota": 4696,
      "ĠCap": 4697,
      "ĠPen": 4698,
      "Ġusers": 4699,
      "ĠLike": 4700,
      "ellig": 4701,
      "izoph": 4702,
      "Ġroad": 4703,
      "raham": 4704,
      "Ġmusician": 4705,
      "Ġinvaded": 4706,
      "ĠMountains": 4707,
      "Ġrequired": 4708,
      "Ġspirit": 4709,
      "isphere": 4710,
      "ifferent": 4711,
      "Ġhusband": 4712,
      "izophren": 4713,
      "bour": 4714,
      "hire": 4715,
      "mar": 4716,
      "with": 4717,
      "oration": 4718,
      "Ġfederal": 4719,
      "ili": 4720,
      "ilton": 4721,
      "Ġeating": 4722,
      "ĠPeter": 4723,
      "Ġconstant": 4724,
      "Ġexc": 4725,
      "Ġseem": 4726,
      "Ġshapes": 4727,
      "Ġability": 4728,
      "Ġcomplic": 4729,
      "rent": 4730,
      "Ġroy": 4731,
      "Ġroots": 4732,
      "Ġactress": 4733,
      "Ġgenes": 4734,
      "Ġcarried": 4735,
      "ĠPruss": 4736,
      "Ġlooked": 4737,
      "Ġlooking": 4738,
      "eptune": 4739,
      "Ġtwice": 4740,
      "Ġdevices": 4741,
      "urban": 4742,
      "Ġtaxes": 4743,
      "ĠCompany": 4744,
      "ĠMoscow": 4745,
      "unicip": 4746,
      "Ġnickn": 4747,
      "Ad": 4748,
      "Today": 4749,
      "craft": 4750,
      "pre": 4751,
      "va": 4752,
      "rea": 4753,
      "oring": 4754,
      "Ġdwar": 4755,
      "Ġemer": 4756,
      "etween": 4757,
      "ĠBoy": 4758,
      "thur": 4759,
      "ceed": 4760,
      "ĠWars": 4761,
      "ĠChile": 4762,
      "Ġjour": 4763,
      "Ġ1993": 4764,
      "uctions": 4765,
      "Ġ70": 4766,
      "Ġminutes": 4767,
      "Ġdepart": 4768,
      "ĠCanadian": 4769,
      "inois": 4770,
      "Ġpractice": 4771,
      "Ġepis": 4772,
      "ĠNazi": 4773,
      "ĠUsually": 4774,
      "Ġcandid": 4775,
      "cyclop": 4776,
      "22": 4777,
      "65": 4778,
      "brew": 4779,
      "fort": 4780,
      "Ġsulf": 4781,
      "alin": 4782,
      "Ġmasturb": 4783,
      "Ġfoot": 4784,
      "Ġtow": 4785,
      "Ġnob": 4786,
      "unt": 4787,
      "Ġrace": 4788,
      "ĠUp": 4789,
      "ĠUnder": 4790,
      "Ġenemies": 4791,
      "orms": 4792,
      "cium": 4793,
      "idents": 4794,
      "Ġmeters": 4795,
      "Ġ1979": 4796,
      "ĠAthen": 4797,
      "ĠDev": 4798,
      "bean": 4799,
      "Ġcollect": 4800,
      "addam": 4801,
      "uhammad": 4802,
      "ĠBeatles": 4803,
      "Ġresources": 4804,
      "nal": 4805,
      "Ġsens": 4806,
      "ali": 4807,
      "Ġmor": 4808,
      "Ġpage": 4809,
      "Ġperm": 4810,
      "Ġlung": 4811,
      "ishop": 4812,
      "Ġunique": 4813,
      "Ġgoal": 4814,
      "Ġrelativity": 4815,
      "Ġcovers": 4816,
      "anches": 4817,
      "cientists": 4818,
      "ĠReg": 4819,
      "Ġartist": 4820,
      "Ġdepends": 4821,
      "Ġsignific": 4822,
      "ĠCalvin": 4823,
      "Ġzinc": 4824,
      "Ġmolec": 4825,
      "Ġclaimed": 4826,
      "Ġissues": 4827,
      "Ġprotein": 4828,
      "ĠProtestant": 4829,
      "66": 4830,
      "DS": 4831,
      "Gen": 4832,
      "IV": 4833,
      "MC": 4834,
      "Not": 4835,
      "bre": 4836,
      "ping": 4837,
      "right": 4838,
      "Ġban": 4839,
      "Ġpus": 4840,
      "Ġinher": 4841,
      "ache": 4842,
      "Ġstick": 4843,
      "thlet": 4844,
      "estival": 4845,
      "ĠLen": 4846,
      "Ġkim": 4847,
      "Ġtrip": 4848,
      "Ġcontent": 4849,
      "ĠLee": 4850,
      "ontin": 4851,
      "Ġexpensive": 4852,
      "Ġequation": 4853,
      "Ġboys": 4854,
      "Ġboats": 4855,
      "Ġengineering": 4856,
      "ĠPopeye": 4857,
      "ĠEmperor": 4858,
      "Ġpregnancy": 4859,
      "Ġcloser": 4860,
      "Ġdogs": 4861,
      "Ġvoice": 4862,
      "Ġcommercial": 4863,
      "ML": 4864,
      "uer": 4865,
      "isation": 4866,
      "Ġcry": 4867,
      "Ġdol": 4868,
      "roc": 4869,
      "ĠCop": 4870,
      "Ġonto": 4871,
      "ĠBook": 4872,
      "Ġitems": 4873,
      "emic": 4874,
      "ĠFox": 4875,
      "ĠLith": 4876,
      "Ġcomedy": 4877,
      "Ġchance": 4878,
      "Ġleaving": 4879,
      "Ġtries": 4880,
      "ference": 4881,
      "Ġnews": 4882,
      "Ġresist": 4883,
      "Ġflood": 4884,
      "198": 4885,
      "Ġkilling": 4886,
      "ĠExamples": 4887,
      "Ġyounger": 4888,
      "yright": 4889,
      "Ġholds": 4890,
      "Ġproperties": 4891,
      "Ġdistrib": 4892,
      "Ġrailway": 4893,
      "celand": 4894,
      "Ġliterature": 4895,
      "Before": 4896,
      "izophrenia": 4897,
      "Ġroyal": 4898,
      "ging": 4899,
      "Ġà": 4900,
      "inton": 4901,
      "Ġsearch": 4902,
      "Ġpick": 4903,
      "ĠTower": 4904,
      "rogen": 4905,
      "ĠIm": 4906,
      "ĠMont": 4907,
      "ĠWelsh": 4908,
      "ĠFre": 4909,
      "Ġnothing": 4910,
      "Ġspin": 4911,
      "Ġvary": 4912,
      "anges": 4913,
      "Ġbranch": 4914,
      "formula": 4915,
      "Ġremember": 4916,
      "Ġ1940": 4917,
      "Ġmillions": 4918,
      "Ġinhabit": 4919,
      "sembly": 4920,
      "ĠStreet": 4921,
      "Ġimmediately": 4922,
      "ĠCaribbean": 4923,
      "BS": 4924,
      "Is": 4925,
      "bur": 4926,
      "ih": 4927,
      "ios": 4928,
      "no": 4929,
      "arm": 4930,
      "Ġmist": 4931,
      "Ġinte": 4932,
      "Ġdies": 4933,
      "ĠCD": 4934,
      "anda": 4935,
      "sey": 4936,
      "ĠDuke": 4937,
      "Ġconcept": 4938,
      "quar": 4939,
      "ishing": 4940,
      "Ġprep": 4941,
      "Ġstrings": 4942,
      "Ġ1981": 4943,
      "Ġelectrical": 4944,
      "Ġ1968": 4945,
      "Ġminerals": 4946,
      "Ġcontinent": 4947,
      "Ġcondition": 4948,
      "attan": 4949,
      "Ġhosted": 4950,
      "Ġfocus": 4951,
      "Ġbehavior": 4952,
      "Ġmagazine": 4953,
      "Ġsurgery": 4954,
      "',": 4955,
      "FA": 4956,
      "house": 4957,
      "Ġselling": 4958,
      "arin": 4959,
      "Ġfuel": 4960,
      "ĠBol": 4961,
      "ully": 4962,
      "ĠLord": 4963,
      "ably": 4964,
      "Ġtrial": 4965,
      "eps": 4966,
      "Ġupper": 4967,
      "Ġouter": 4968,
      "Ġ300": 4969,
      "forest": 4970,
      "Ġanyone": 4971,
      "Ġregard": 4972,
      "Ġbelief": 4973,
      "Ġadding": 4974,
      "gency": 4975,
      "Ġthinking": 4976,
      "hester": 4977,
      "Ġemot": 4978,
      "Ġemploy": 4979,
      "Ġbiology": 4980,
      "Ġsources": 4981,
      "Ġmonarchy": 4982,
      "ĠMartin": 4983,
      "OS": 4984,
      "fr": 4985,
      "head": 4986,
      "Ġsand": 4987,
      "Ġbal": 4988,
      "Ġmer": 4989,
      "Ġped": 4990,
      "Ġpack": 4991,
      "ĠTom": 4992,
      "ĠMy": 4993,
      "thod": 4994,
      "Ġrough": 4995,
      "ĠFire": 4996,
      "Ġchlor": 4997,
      "Ġsuc": 4998,
      "Ġtrains": 4999,
      "ieties": 5000,
      "ixon": 5001,
      "Ġconsist": 5002,
      "Ġsimpl": 5003,
      "Ġ150": 5004,
      "Ġsky": 5005,
      "ylv": 5006,
      "Ġ1930": 5007,
      "ĠOlympics": 5008,
      "Ġhomosexual": 5009,
      "Ġrecognized": 5010,
      "ĠColumbus": 5011,
      "Ġcouple": 5012,
      "Ġawarded": 5013,
      "Ġnucleus": 5014,
      "thodox": 5015,
      "From": 5016,
      "Pro": 5017,
      "back": 5018,
      "ien": 5019,
      "made": 5020,
      "Ġpath": 5021,
      "ingu": 5022,
      "Ġnecess": 5023,
      "ĠCle": 5024,
      "ĠMot": 5025,
      "ĠMet": 5026,
      "ĠBill": 5027,
      "ĠFam": 5028,
      "ĠDep": 5029,
      "Ġcomic": 5030,
      "Ġkm": 5031,
      "Ġleague": 5032,
      "Ġadvert": 5033,
      "Ġevolved": 5034,
      "Ġwriters": 5035,
      "Ġinvent": 5036,
      "Ġacts": 5037,
      "Ġ1969": 5038,
      "Ġlocation": 5039,
      "ĠUSB": 5040,
      "Ġcollege": 5041,
      "Ġstatus": 5042,
      "Ġreactions": 5043,
      "Ġsilver": 5044,
      "ĠBelgium": 5045,
      "Ġestimated": 5046,
      "chestra": 5047,
      "Ġmoment": 5048,
      "ka": 5049,
      "lers": 5050,
      "yo": 5051,
      "Ġã": 5052,
      "ishes": 5053,
      "Ġcatch": 5054,
      "onder": 5055,
      "esar": 5056,
      "Ġpal": 5057,
      "Ġple": 5058,
      "Ġfat": 5059,
      "Ġdip": 5060,
      "Ġnit": 5061,
      "ĠGulf": 5062,
      "ĠDemocr": 5063,
      "Ġkid": 5064,
      "Ġroll": 5065,
      "Ġroads": 5066,
      "ensus": 5067,
      "Ġmuseum": 5068,
      "Ġcreation": 5069,
      "ĠGermans": 5070,
      "ocked": 5071,
      "ĠClinton": 5072,
      "stitute": 5073,
      "Star": 5074,
      "Ġpainting": 5075,
      "ĠMichel": 5076,
      "Ġavoid": 5077,
      "Ġaffect": 5078,
      "Ġsemen": 5079,
      "ĠGolden": 5080,
      "ĠNobel": 5081,
      "Con": 5082,
      "Se": 5083,
      "She": 5084,
      "pool": 5085,
      "sm": 5086,
      "Äģ": 5087,
      "erus": 5088,
      "Ġopt": 5089,
      "Ġfelt": 5090,
      "icians": 5091,
      "omach": 5092,
      "Ġbeat": 5093,
      "ĠSah": 5094,
      "roat": 5095,
      "Ġgases": 5096,
      "Ġgained": 5097,
      "ĠMercury": 5098,
      "odium": 5099,
      "ĠFil": 5100,
      "iable": 5101,
      "angel": 5102,
      "ĠHebrew": 5103,
      "ubs": 5104,
      "aily": 5105,
      "ancial": 5106,
      "Ġinfection": 5107,
      "Ġcontrovers": 5108,
      "annel": 5109,
      "Ġfemales": 5110,
      "ĠAustralian": 5111,
      "aska": 5112,
      "Ġinterested": 5113,
      "Ġpregnant": 5114,
      "Ġglobal": 5115,
      "Ġterror": 5116,
      "ĠIllinois": 5117,
      "33": 5118,
      "45": 5119,
      "However": 5120,
      "ds": 5121,
      "hattan": 5122,
      "uz": 5123,
      "wich": 5124,
      "rey": 5125,
      "onze": 5126,
      "Ġfresh": 5127,
      "ĠTime": 5128,
      "elve": 5129,
      "ĠBBC": 5130,
      "ĠEver": 5131,
      "Ġheard": 5132,
      "Ġrub": 5133,
      "ĠJones": 5134,
      "Ġvoc": 5135,
      "Ġrecently": 5136,
      "Ġ178": 5137,
      "ĠPrize": 5138,
      "Ġslave": 5139,
      "Ġminister": 5140,
      "Ġproduces": 5141,
      "Ġstronger": 5142,
      "ĠâĢ¢": 5143,
      "Ġfactors": 5144,
      "Ġflowers": 5145,
      "Although": 5146,
      "Ġhealthy": 5147,
      "...": 5148,
      "Ġhunting": 5149,
      "Ġimprove": 5150,
      "Ġpurpose": 5151,
      "Ġconquered": 5152,
      "Ġfungi": 5153,
      "90": 5154,
      "body": 5155,
      "ket": 5156,
      "pen": 5157,
      "thes": 5158,
      "Ġ[": 5159,
      "Ġwings": 5160,
      "Ġpul": 5161,
      "oub": 5162,
      "Ġhits": 5163,
      "Ġdens": 5164,
      "ĠTok": 5165,
      "ĠAut": 5166,
      "otic": 5167,
      "ĠMuhammad": 5168,
      "utive": 5169,
      "sex": 5170,
      "ĠGar": 5171,
      "Ġrise": 5172,
      "Ġ1920": 5173,
      "Ġbutter": 5174,
      "Ġdisag": 5175,
      "Ġjazz": 5176,
      "Ġelect": 5177,
      "Ġ1800": 5178,
      "obe": 5179,
      "Ġacting": 5180,
      "Ġcream": 5181,
      "Ġstudent": 5182,
      "Ġ1971": 5183,
      "ĠIndepend": 5184,
      "197": 5185,
      "ĠOthers": 5186,
      "Ġfishing": 5187,
      "Ġcheck": 5188,
      "Ġcycle": 5189,
      "Ġcolonies": 5190,
      "ĠAirport": 5191,
      "ĠSaturn": 5192,
      "ointed": 5193,
      "Ġsurrounded": 5194,
      "26": 5195,
      "By": 5196,
      "rix": 5197,
      "Ġcast": 5198,
      "enh": 5199,
      "Ġpull": 5200,
      "omagn": 5201,
      "Ġhy": 5202,
      "Ġrepe": 5203,
      "idency": 5204,
      "Ġalone": 5205,
      "ĠHill": 5206,
      "change": 5207,
      "ĠJo": 5208,
      "ighter": 5209,
      "Ġchrom": 5210,
      "Ġspring": 5211,
      "ĠKÃ¶": 5212,
      "Ġtherefore": 5213,
      "osevel": 5214,
      "orning": 5215,
      "ĠAnt": 5216,
      "ĠArthur": 5217,
      "hess": 5218,
      "ĠSpring": 5219,
      "ificial": 5220,
      "Ġautom": 5221,
      "Ġharder": 5222,
      "Ġordered": 5223,
      "Ġera": 5224,
      "Ġarrived": 5225,
      "Ġharm": 5226,
      "Ġfertil": 5227,
      "Ġbullet": 5228,
      "Ġoccupied": 5229,
      "Ġmalaria": 5230,
      "Ġsignificant": 5231,
      "Eng": 5232,
      "Us": 5233,
      "nes": 5234,
      "Ġurban": 5235,
      "Ġtropical": 5236,
      "ining": 5237,
      "erves": 5238,
      "Ġpages": 5239,
      "Ġfully": 5240,
      "Ġdomin": 5241,
      "ĠTreat": 5242,
      "ums": 5243,
      "Ġhero": 5244,
      "apy": 5245,
      "ĠDiv": 5246,
      "iven": 5247,
      "ĠInter": 5248,
      "Ġsperm": 5249,
      "Ġshar": 5250,
      "ĠVan": 5251,
      "ĠArctic": 5252,
      "Ġpoly": 5253,
      "ĠAssoci": 5254,
      "Ġ1984": 5255,
      "exual": 5256,
      "Ġhighly": 5257,
      "Ġfoods": 5258,
      "Ġsettle": 5259,
      "ĠGreeks": 5260,
      "Ġconsider": 5261,
      "Ġtourists": 5262,
      "Ġ2023": 5263,
      "wealth": 5264,
      "Ġmultiple": 5265,
      "Ġprofessional": 5266,
      "Ġmechanics": 5267,
      "Ġprogramming": 5268,
      "Ġgalaxies": 5269,
      "ztec": 5270,
      "ĠGrammy": 5271,
      "osevelt": 5272,
      "dia": 5273,
      "mouth": 5274,
      "zech": 5275,
      "Ġul": 5276,
      "onstr": 5277,
      "Ġbones": 5278,
      "Ġbread": 5279,
      "Ġfans": 5280,
      "Ġdimens": 5281,
      "ĠTown": 5282,
      "Ġliver": 5283,
      "ĠServ": 5284,
      "ĠSyr": 5285,
      "ĠSaddam": 5286,
      "ĠWay": 5287,
      "ĠRing": 5288,
      "Ġplastic": 5289,
      "Ġkings": 5290,
      "ometry": 5291,
      "Ġbright": 5292,
      "Ġ1987": 5293,
      "Ġelectronic": 5294,
      "Ġbroken": 5295,
      "Ġdirector": 5296,
      "imately": 5297,
      "Ġfactories": 5298,
      "Ġperformance": 5299,
      "Ġappears": 5300,
      "Ġopening": 5301,
      "Ġmixture": 5302,
      "Ġvirus": 5303,
      "Ġviruses": 5304,
      "ĠPhilipp": 5305,
      "Ġorgans": 5306,
      "Ġwebsite": 5307,
      "Ġadopted": 5308,
      "ĠEthiopia": 5309,
      "ĠTestament": 5310,
      "Ġinhabitants": 5311,
      "Gr": 5312,
      "Sometimes": 5313,
      "fl": 5314,
      "ĠÎ": 5315,
      "Ġbene": 5316,
      "aled": 5317,
      "state": 5318,
      "ĠCour": 5319,
      "igen": 5320,
      "Ġaltern": 5321,
      "ĠBob": 5322,
      "anding": 5323,
      "Ġmoons": 5324,
      "ĠNA": 5325,
      "ĠDar": 5326,
      "Ġexists": 5327,
      "ĠOb": 5328,
      "Ġseeds": 5329,
      "ipe": 5330,
      "Ġarrest": 5331,
      "ĠStep": 5332,
      "Ġ35": 5333,
      "ĠSpec": 5334,
      "Ġbranches": 5335,
      "issipp": 5336,
      "Ġtypically": 5337,
      "ennon": 5338,
      "Ġopin": 5339,
      "vention": 5340,
      "Ġentered": 5341,
      "ĠOrthodox": 5342,
      "Ġtalking": 5343,
      "ĠSmith": 5344,
      "Ġissue": 5345,
      "ufact": 5346,
      "Ġactivities": 5347,
      "Ġfifth": 5348,
      "ĠCarolina": 5349,
      "Ġthrone": 5350,
      "ocolate": 5351,
      "haps": 5352,
      "lah": 5353,
      "ta": 5354,
      "heim": 5355,
      "Ġtheories": 5356,
      "onents": 5357,
      "Ġbound": 5358,
      "Ġfal": 5359,
      "Ġfair": 5360,
      "Ġdemocratic": 5361,
      "idges": 5362,
      "ĠCatherine": 5363,
      "ĠBur": 5364,
      "anders": 5365,
      "Ġring": 5366,
      "ĠLib": 5367,
      "osm": 5368,
      "Ġvag": 5369,
      "ĠOx": 5370,
      "aven": 5371,
      "ibility": 5372,
      "Ġmetropolitan": 5373,
      "Ġapplic": 5374,
      "ohann": 5375,
      "Ġfloor": 5376,
      "irds": 5377,
      "Ġarticle": 5378,
      "Ġcurrency": 5379,
      "Ġlimit": 5380,
      "Ġhoriz": 5381,
      "Ġcelebrated": 5382,
      "Ġcamera": 5383,
      "ĠGovernor": 5384,
      "Ġfigure": 5385,
      "Ġconstruction": 5386,
      "Ġlaunched": 5387,
      "Ġsucceed": 5388,
      "ault": 5389,
      "length": 5390,
      "top": 5391,
      "uber": 5392,
      "Ġwet": 5393,
      "Ġcattle": 5394,
      "orial": 5395,
      "Ġnort": 5396,
      "ĠSummer": 5397,
      "Ġstable": 5398,
      "ĠThose": 5399,
      "Ġdisplay": 5400,
      "Ġagreement": 5401,
      "iolet": 5402,
      "Ġ1976": 5403,
      "Ġ1982": 5404,
      "Ġ1964": 5405,
      "Ġmatch": 5406,
      "anned": 5407,
      "Ġfarming": 5408,
      "ydney": 5409,
      "Ġrestaur": 5410,
      "Ġvoted": 5411,
      "Ġlogo": 5412,
      "Ġinstance": 5413,
      "Ġgirl": 5414,
      "Ġkilometers": 5415,
      "Ġfarmers": 5416,
      "Ġpollution": 5417,
      "ĠPersian": 5418,
      "ĠCommonwealth": 5419,
      "Ġsleep": 5420,
      "ĠSecretary": 5421,
      "ylvania": 5422,
      "issippi": 5423,
      "SA": 5424,
      "based": 5425,
      "con": 5426,
      "ns": 5427,
      "Ġax": 5428,
      "Ġcorn": 5429,
      "aling": 5430,
      "Ġmunicip": 5431,
      "Ġhop": 5432,
      "Ġdouble": 5433,
      "ĠTal": 5434,
      "ĠAztec": 5435,
      "oted": 5436,
      "Ġstadium": 5437,
      "ersey": 5438,
      "Ġunion": 5439,
      "ĠAlbert": 5440,
      "Ġprey": 5441,
      "ĠIndones": 5442,
      "Ġsupposed": 5443,
      "Ġsubs": 5444,
      "Ġ177": 5445,
      "Ġdivision": 5446,
      "Ġfarms": 5447,
      "ĠShow": 5448,
      "ĠJohnson": 5449,
      "Ġparticip": 5450,
      "Ġclasses": 5451,
      "ĠClub": 5452,
      "ĠGrand": 5453,
      "Ġcopyright": 5454,
      "Ġfinally": 5455,
      "ĠManhattan": 5456,
      "Ġdistrict": 5457,
      "Ġcreating": 5458,
      "ĠMichigan": 5459,
      "Ġvolcano": 5460,
      "Ġcontrib": 5461,
      "Ġexperiment": 5462,
      "Ġfrequency": 5463,
      "ĠJulian": 5464,
      "Ġdictators": 5465,
      "37": 5466,
      "Ex": 5467,
      "ef": 5468,
      "Ã¦": 5469,
      "ĠAv": 5470,
      "ĠIE": 5471,
      "ĠIceland": 5472,
      "aco": 5473,
      "ims": 5474,
      "ĠMax": 5475,
      "ĠBig": 5476,
      "Ġrout": 5477,
      "ĠRob": 5478,
      "ĠNeptune": 5479,
      "ĠLand": 5480,
      "ĠJr": 5481,
      "Ġtraining": 5482,
      "ipes": 5483,
      "iverpool": 5484,
      "rict": 5485,
      "phib": 5486,
      "ysis": 5487,
      "Ġsupply": 5488,
      "Ġmanager": 5489,
      "Ġbrown": 5490,
      "Ġentertain": 5491,
      "Ġturns": 5492,
      "nowiki": 5493,
      "Ġterritories": 5494,
      "Ġauthority": 5495,
      "Ġcomposers": 5496,
      "Ġschizophrenia": 5497,
      "Ġphilosophers": 5498,
      "Ġvitamin": 5499,
      "ĠHugo": 5500,
      "burgh": 5501,
      "His": 5502,
      "List": 5503,
      "bec": 5504,
      "cest": 5505,
      "chers": 5506,
      "jac": 5507,
      "lan": 5508,
      "ries": 5509,
      "yles": 5510,
      "Ġsac": 5511,
      "itals": 5512,
      "arily": 5513,
      "ombs": 5514,
      "Ġloss": 5515,
      "room": 5516,
      "Ġfort": 5517,
      "Ġstored": 5518,
      "ĠHere": 5519,
      "ĠWater": 5520,
      "Ġspac": 5521,
      "Ġspoke": 5522,
      "Ġpartly": 5523,
      "tebr": 5524,
      "ĠAntar": 5525,
      "othic": 5526,
      "Ġ400": 5527,
      "ovak": 5528,
      "Ġsecurity": 5529,
      "Ġplanned": 5530,
      "Ġ1977": 5531,
      "Ġ1985": 5532,
      "Ġ1986": 5533,
      "Ġconsum": 5534,
      "Ġslightly": 5535,
      "Ġclassification": 5536,
      "Ġoxid": 5537,
      "Ġspeakers": 5538,
      "Ġmarry": 5539,
      "ĠMoon": 5540,
      "Ġidentity": 5541,
      "ĠSerb": 5542,
      "Ġbroadcast": 5543,
      "Ġsettled": 5544,
      "pet": 5545,
      "yond": 5546,
      "inder": 5547,
      "arus": 5548,
      "asia": 5549,
      "stan": 5550,
      "ader": 5551,
      "ĠBat": 5552,
      "ĠBalt": 5553,
      "ĠFederal": 5554,
      "ĠLuther": 5555,
      "ĠOl": 5556,
      "Ġcouncil": 5557,
      "Ġmanufact": 5558,
      "hips": 5559,
      "Ġsinging": 5560,
      "Ġaircraft": 5561,
      "Ġhappy": 5562,
      "Ġruler": 5563,
      "Ġorganic": 5564,
      "Ġdepression": 5565,
      "ĠMuseum": 5566,
      "Station": 5567,
      "Ġtwenty": 5568,
      "Ġviolence": 5569,
      "Ġproteins": 5570,
      "Ġhonor": 5571,
      "ĠNormandy": 5572,
      "inosaur": 5573,
      "Ġassociated": 5574,
      "Ġconcert": 5575,
      "Ġimmigrants": 5576,
      "ĠAssociation": 5577,
      "Mus": 5578,
      "east": 5579,
      "mun": 5580,
      "wise": 5581,
      "Ġions": 5582,
      "Ġsoul": 5583,
      "enger": 5584,
      "Ġbatt": 5585,
      "Ġinit": 5586,
      "ĠTem": 5587,
      "ĠCast": 5588,
      "Ġstomach": 5589,
      "ĠPrem": 5590,
      "erset": 5591,
      "ĠNixon": 5592,
      "ĠLab": 5593,
      "Ġplat": 5594,
      "Ġvess": 5595,
      "ĠThree": 5596,
      "Ġunless": 5597,
      "ĠKent": 5598,
      "ĠKenn": 5599,
      "assical": 5600,
      "ĠVol": 5601,
      "Ġadapt": 5602,
      "Ġroles": 5603,
      "orses": 5604,
      "phone": 5605,
      "Ġ45": 5606,
      "Ġunderground": 5607,
      "Ġ64": 5608,
      "Ġsubjects": 5609,
      "Ġ1965": 5610,
      "Ġremove": 5611,
      "Ġinfin": 5612,
      "Ġlasted": 5613,
      "Ġenter": 5614,
      "Ġstudying": 5615,
      "Ġfuneral": 5616,
      "istrict": 5617,
      "Ġlabel": 5618,
      "Ġapprox": 5619,
      "Ġsemi": 5620,
      "ĠRoosevelt": 5621,
      "Ġmosques": 5622,
      "Ġgirls": 5623,
      "ĠGalile": 5624,
      "Ġcustom": 5625,
      "ĠVienna": 5626,
      "Br": 5627,
      "DP": 5628,
      "El": 5629,
      "kin": 5630,
      "klah": 5631,
      "vis": 5632,
      "Ã¨": 5633,
      "Ġmut": 5634,
      "Ġperman": 5635,
      "icated": 5636,
      "ĠTre": 5637,
      "Ġlack": 5638,
      "ĠCons": 5639,
      "ĠCzech": 5640,
      "irty": 5641,
      "ĠMa": 5642,
      "ĠMen": 5643,
      "Ġstores": 5644,
      "ĠBarb": 5645,
      "ĠWik": 5646,
      "Ġnotes": 5647,
      "Ġconver": 5648,
      "ector": 5649,
      "ĠUnlike": 5650,
      "ĠUniverse": 5651,
      "inea": 5652,
      "Ġencour": 5653,
      "Ġ32": 5654,
      "apped": 5655,
      "Ġacids": 5656,
      "Ġaccount": 5657,
      "Ġsingles": 5658,
      "Ġdepend": 5659,
      "ocrates": 5660,
      "Ġvisible": 5661,
      "Ġfinancial": 5662,
      "ĠAdams": 5663,
      "Ġdescribes": 5664,
      "Ġexisted": 5665,
      "ymph": 5666,
      "Ġhistorical": 5667,
      "ĠSuper": 5668,
      "Ġfixed": 5669,
      "Ġphrase": 5670,
      "47": 5671,
      "53": 5672,
      "With": 5673,
      "pan": 5674,
      "zi": 5675,
      "Ġsites": 5676,
      "atom": 5677,
      "Ġbill": 5678,
      "Ġancest": 5679,
      "omes": 5680,
      "Ġham": 5681,
      "Ġdro": 5682,
      "vey": 5683,
      "olves": 5684,
      "etics": 5685,
      "Ġreve": 5686,
      "under": 5687,
      "Ġwhom": 5688,
      "Ġrh": 5689,
      "ĠFer": 5690,
      "sole": 5691,
      "Ġextens": 5692,
      "Ġshared": 5693,
      "quit": 5694,
      "Ġwealth": 5695,
      "ĠArgent": 5696,
      "Ġprec": 5697,
      "ucted": 5698,
      "Ġarticles": 5699,
      "Ġpolitician": 5700,
      "Ġfewer": 5701,
      "Ġprotected": 5702,
      "Ġcommunities": 5703,
      "ydr": 5704,
      "Ġautism": 5705,
      "Ġsolo": 5706,
      "Ġcombined": 5707,
      "Ġdigital": 5708,
      "Ġcircum": 5709,
      "Ġsuggested": 5710,
      "ĠVenus": 5711,
      "Ġgreater": 5712,
      "Ġextremely": 5713,
      "Ġteacher": 5714,
      "encies": 5715,
      "Ġneutrons": 5716,
      "Ġtoxic": 5717,
      "quarters": 5718,
      "According": 5719,
      "book": 5720,
      "from": 5721,
      "hold": 5722,
      "ois": 5723,
      "vest": 5724,
      "Ġ)": 5725,
      "Ġaudi": 5726,
      "Ġcats": 5727,
      "Ġcastle": 5728,
      "Ġmorning": 5729,
      "lect": 5730,
      "Ġhour": 5731,
      "ĠSir": 5732,
      "ĠSeveral": 5733,
      "ĠId": 5734,
      "ety": 5735,
      "lying": 5736,
      "ĠMel": 5737,
      "ĠPenn": 5738,
      "ĠFree": 5739,
      "ĠNep": 5740,
      "ĠLove": 5741,
      "Ġconv": 5742,
      "resent": 5743,
      "Ġshorter": 5744,
      "ockey": 5745,
      "Ġtra": 5746,
      "ouri": 5747,
      "aved": 5748,
      "Ġactors": 5749,
      "Ġquality": 5750,
      "ĠYear": 5751,
      "Ġshell": 5752,
      "Ġ1978": 5753,
      "Ġ1983": 5754,
      "Ġ1967": 5755,
      "Ġaccur": 5756,
      "ĠOnce": 5757,
      "Ġcrust": 5758,
      "Ġprovided": 5759,
      "ographic": 5760,
      "Ġincreasing": 5761,
      "Ġaffected": 5762,
      "Ġbrothers": 5763,
      "Ġvegetables": 5764,
      "Ġpurposes": 5765,
      "ĠMississippi": 5766,
      "Ġdocument": 5767,
      "ĠHamilton": 5768,
      "Ġfossil": 5769,
      "ĠModern": 5770,
      "ĠCaesar": 5771,
      "ĠHawaii": 5772,
      "Ġpunish": 5773,
      "ĠOften": 5774,
      "Ġtaste": 5775,
      "ĠTreaty": 5776,
      "ES": 5777,
      "ding": 5778,
      "dam": 5779,
      "la": 5780,
      "mi": 5781,
      "set": 5782,
      "Ġinn": 5783,
      "Ġdiet": 5784,
      "Ġthrow": 5785,
      "aden": 5786,
      "una": 5787,
      "Ġfruits": 5788,
      "Ġrape": 5789,
      "Ġ1900": 5790,
      "ĠNavy": 5791,
      "ctica": 5792,
      "Ġchose": 5793,
      "Ġshr": 5794,
      "Ġshark": 5795,
      "ĠChampions": 5796,
      "Ġclosed": 5797,
      "Ġdesc": 5798,
      "ĠMarg": 5799,
      "Ġdecade": 5800,
      "Ġconsists": 5801,
      "Ġspeaking": 5802,
      "Ġattention": 5803,
      "Ġaccel": 5804,
      "Ġcontinu": 5805,
      "Ġprovides": 5806,
      "Ġreduce": 5807,
      "ĠMusic": 5808,
      "Ġbasket": 5809,
      "Ġintellig": 5810,
      "centr": 5811,
      "minem": 5812,
      "ĠArabia": 5813,
      "Ġtitles": 5814,
      "Ġrequire": 5815,
      "ĠSomerset": 5816,
      "Ġescape": 5817,
      "Ġfaith": 5818,
      "Ġkimono": 5819,
      "uerto": 5820,
      "klahoma": 5821,
      "Sc": 5822,
      "South": 5823,
      "bai": 5824,
      "ki": 5825,
      "oz": 5826,
      "Ġut": 5827,
      "isher": 5828,
      "Ġbed": 5829,
      "Ġbanks": 5830,
      "arly": 5831,
      "Ġmigr": 5832,
      "Ġfolk": 5833,
      "Ġfrog": 5834,
      "asy": 5835,
      "Ġtool": 5836,
      "Ġdust": 5837,
      "Ġdaily": 5838,
      "ĠTro": 5839,
      "iling": 5840,
      "olars": 5841,
      "otle": 5842,
      "imum": 5843,
      "ĠHan": 5844,
      "ĠBrown": 5845,
      "ĠPre": 5846,
      "ĠPot": 5847,
      "Ġathe": 5848,
      "Ġcondom": 5849,
      "anged": 5850,
      "Ġshaped": 5851,
      "avia": 5852,
      "ieval": 5853,
      "Ġprime": 5854,
      "place": 5855,
      "Ġperfect": 5856,
      "ĠTherefore": 5857,
      "Ġpolicy": 5858,
      "Ġsaf": 5859,
      "Ġmainland": 5860,
      "Ġ1972": 5861,
      "arrison": 5862,
      "incess": 5863,
      "ĠColor": 5864,
      "ĠOrgan": 5865,
      "Ġbasis": 5866,
      "Ġengines": 5867,
      "arent": 5868,
      "Ġreceive": 5869,
      "Ġhistorians": 5870,
      "Ġmeeting": 5871,
      "ĠGovernment": 5872,
      "Ġmessage": 5873,
      "Ġdensity": 5874,
      "ĠPhilippines": 5875,
      "Ġvagina": 5876,
      "%.": 5877,
      "99": 5878,
      "IA": 5879,
      "dess": 5880,
      "mers": 5881,
      "Ġ;": 5882,
      "Ġtiny": 5883,
      "itness": 5884,
      "arrow": 5885,
      "Ġinternet": 5886,
      "Ġhyp": 5887,
      "ĠTour": 5888,
      "olute": 5889,
      "ĠChe": 5890,
      "ecraft": 5891,
      "ĠHuman": 5892,
      "ĠBen": 5893,
      "ĠErit": 5894,
      "sequ": 5895,
      "Ġrat": 5896,
      "ĠLat": 5897,
      "ĠLennon": 5898,
      "ĠDC": 5899,
      "ivores": 5900,
      "ĠInc": 5901,
      "Ġchocolate": 5902,
      "Ġspelling": 5903,
      "Ġuncle": 5904,
      "Ġwheel": 5905,
      "ucose": 5906,
      "Ġprice": 5907,
      "Ġadject": 5908,
      "Ġcred": 5909,
      "Ġshowing": 5910,
      "Ġ1988": 5911,
      "Ġcrimes": 5912,
      "Ġ1944": 5913,
      "Ġorganization": 5914,
      "ĠColomb": 5915,
      "Ġtrading": 5916,
      "Ġopera": 5917,
      "Ġlisted": 5918,
      "Ġrefused": 5919,
      "Ġinstructions": 5920,
      "araoh": 5921,
      "Ġbusinesses": 5922,
      "Ġstreng": 5923,
      "zerbai": 5924,
      "Ġmathematic": 5925,
      "ĠPortugal": 5926,
      "Ġdivorced": 5927,
      "Ġdiameter": 5928,
      "Ġanswer": 5929,
      "Super": 5930,
      "Ġmolecule": 5931,
      "Ed": 5932,
      "King": 5933,
      "gu": 5934,
      "iac": 5935,
      "iate": 5936,
      "oons": 5937,
      "sec": 5938,
      "tical": 5939,
      "town": 5940,
      "teen": 5941,
      "western": 5942,
      "Ġess": 5943,
      "ano": 5944,
      "Ġcateg": 5945,
      "aly": 5946,
      "Ġdanc": 5947,
      "Ġbeyond": 5948,
      "ĠSant": 5949,
      "ading": 5950,
      "vere": 5951,
      "etime": 5952,
      "allow": 5953,
      "apor": 5954,
      "eoples": 5955,
      "udity": 5956,
      "ĠOs": 5957,
      "Ġjump": 5958,
      "Ġrob": 5959,
      "cious": 5960,
      "Ġappointed": 5961,
      "Ġremain": 5962,
      "Ġ95": 5963,
      "Ġmovements": 5964,
      "Ġchemistry": 5965,
      "Ġreading": 5966,
      "Ġlisten": 5967,
      "Ġflower": 5968,
      "Ġverbs": 5969,
      "Ġphilosopher": 5970,
      "ĠRecords": 5971,
      "ĠRhine": 5972,
      "ĠUkraine": 5973,
      "ĠPrussia": 5974,
      "ĠSahara": 5975,
      "28": 5976,
      "55": 5977,
      "North": 5978,
      "Sw": 5979,
      "iat": 5980,
      "iology": 5981,
      "pos": 5982,
      "vation": 5983,
      "Â²": 5984,
      "Ġtend": 5985,
      "orage": 5986,
      "Ġpark": 5987,
      "ici": 5988,
      "oured": 5989,
      "ĠTe": 5990,
      "ĠSil": 5991,
      "rot": 5992,
      "Ġ1000": 5993,
      "lywood": 5994,
      "ĠMid": 5995,
      "Ġalive": 5996,
      "tery": 5997,
      "Ġorb": 5998,
      "Ġorient": 5999,
      "ĠWonder": 6000,
      "ĠLuc": 6001,
      "ĠJersey": 6002,
      "Ġchall": 6003,
      "Ġchick": 6004,
      "ante": 6005,
      "Ġcompound": 6006,
      "Ġclim": 6007,
      "ĠVIII": 6008,
      "ĠAmericas": 6009,
      "Ġpresidency": 6010,
      "Ġprefect": 6011,
      "Ġelectromagn": 6012,
      "rosc": 6013,
      "Ġrecording": 6014,
      "Ġcontinental": 6015,
      "Ġsexually": 6016,
      "Ġdistinct": 6017,
      "Ġclosely": 6018,
      "Ġoccurs": 6019,
      "Ġattraction": 6020,
      "Ġparticularly": 6021,
      "ĠNazis": 6022,
      "Ġrarely": 6023,
      "Ġfeatured": 6024,
      "Ġscript": 6025,
      "Ġvehicles": 6026,
      "Ele": 6027,
      "aism": 6028,
      "hib": 6029,
      "million": 6030,
      "ror": 6031,
      "uv": 6032,
      "Ġur": 6033,
      "rete": 6034,
      "itz": 6035,
      "Ġpeoples": 6036,
      "Ġhall": 6037,
      "Ġdrop": 6038,
      "Ġneck": 6039,
      "amine": 6040,
      "oto": 6041,
      "ĠMem": 6042,
      "oung": 6043,
      "Ġrice": 6044,
      "ĠLiverpool": 6045,
      "Ġconcentr": 6046,
      "ĠOff": 6047,
      "Ġunus": 6048,
      "ĠStud": 6049,
      "active": 6050,
      "Ġpray": 6051,
      "ĠArist": 6052,
      "ctric": 6053,
      "Ġaccident": 6054,
      "Ġmining": 6055,
      "Ġ1949": 6056,
      "Ġgrows": 6057,
      "Ġ1953": 6058,
      "Ġsouthwest": 6059,
      "Ġallowing": 6060,
      "Ġcalcium": 6061,
      "ĠConstitution": 6062,
      "ĠAbraham": 6063,
      "Ġoxide": 6064,
      "Ġfilms": 6065,
      "Ġlowest": 6066,
      "Ġexistence": 6067,
      "Ġsteam": 6068,
      "Ġunderstood": 6069,
      "Ġcourse": 6070,
      "Ġclubs": 6071,
      "ĠMexican": 6072,
      "Ġraise": 6073,
      "ricket": 6074,
      "Ġmathematical": 6075,
      "Ġteaching": 6076,
      "Ġbehavi": 6077,
      "Ġfossils": 6078,
      "Ġrapid": 6079,
      "ĠPlayStation": 6080,
      "Ġresponsible": 6081,
      "ĠAthens": 6082,
      "100": 6083,
      "67": 6084,
      "VD": 6085,
      "fin": 6086,
      "ga": 6087,
      "hio": 6088,
      "ias": 6089,
      "wing": 6090,
      "anz": 6091,
      "Ġcous": 6092,
      "Ġcrown": 6093,
      "arry": 6094,
      "Ġfib": 6095,
      "Ġlose": 6096,
      "ĠSydney": 6097,
      "Ġgarden": 6098,
      "otton": 6099,
      "Ġreign": 6100,
      "ĠCy": 6101,
      "Ġonline": 6102,
      "iration": 6103,
      "ĠMong": 6104,
      "ĠMah": 6105,
      "iger": 6106,
      "ĠBang": 6107,
      "ĠJust": 6108,
      "Ġshop": 6109,
      "Ġtrack": 6110,
      "ells": 6111,
      "iban": 6112,
      "Ġcompar": 6113,
      "osta": 6114,
      "awa": 6115,
      "Ġcolours": 6116,
      "Ġprefer": 6117,
      "Ġserve": 6118,
      "Ġdrives": 6119,
      "ologist": 6120,
      "Ġflight": 6121,
      "Ġowner": 6122,
      "Ġowners": 6123,
      "Ġanimated": 6124,
      "Ġattended": 6125,
      "Ġmineral": 6126,
      "venth": 6127,
      "Ġdirected": 6128,
      "Ġkeeping": 6129,
      "Ġstarred": 6130,
      "Ġstands": 6131,
      "ĠSunday": 6132,
      "Ġgeneration": 6133,
      "Ġreplace": 6134,
      "Ġconnect": 6135,
      "Ġconfir": 6136,
      "Ġholiday": 6137,
      "laration": 6138,
      "Ġcomposer": 6139,
      "Ġcooking": 6140,
      "Ġmagnetic": 6141,
      "ĠMissouri": 6142,
      "Mario": 6143,
      "ĠHungary": 6144,
      "Ġlinked": 6145,
      "Ġnominated": 6146,
      "Ġsweet": 6147,
      "ĠCourt": 6148,
      "igenous": 6149,
      "CO": 6150,
      "Cal": 6151,
      "OC": 6152,
      "ban": 6153,
      "tic": 6154,
      "uis": 6155,
      "wall": 6156,
      "Ġsen": 6157,
      "Ġsection": 6158,
      "onto": 6159,
      "Ġfir": 6160,
      "ĠMer": 6161,
      "Ġstyles": 6162,
      "throp": 6163,
      "agu": 6164,
      "ĠFour": 6165,
      "Ġnote": 6166,
      "Ġplans": 6167,
      "Ġvan": 6168,
      "Ġseat": 6169,
      "Ġunlike": 6170,
      "Ġdoor": 6171,
      "Ġimag": 6172,
      "Ġformal": 6173,
      "Ġroof": 6174,
      "Ġsyll": 6175,
      "Ġmuscle": 6176,
      "Ġactions": 6177,
      "Ġstrug": 6178,
      "Ġdecre": 6179,
      "hemical": 6180,
      "ĠAsian": 6181,
      "Ġlargely": 6182,
      "Ġcharged": 6183,
      "Ġ1947": 6184,
      "Ġdeveloping": 6185,
      "Ġorganized": 6186,
      "Ġequations": 6187,
      "ĠUSA": 6188,
      "Ġrainforest": 6189,
      "porary": 6190,
      "Ġneutral": 6191,
      "ĠMalays": 6192,
      "Ġlicense": 6193,
      "ĠMandela": 6194,
      "ĠHinduism": 6195,
      "Ġlungs": 6196,
      "ĠService": 6197,
      "ĠPremier": 6198,
      "ĠNepal": 6199,
      "29": 6200,
      "En": 6201,
      "Or": 6202,
      "king": 6203,
      "li": 6204,
      "sylvania": 6205,
      "heastern": 6206,
      "onse": 6207,
      "ora": 6208,
      "Ġpair": 6209,
      "Ġhorses": 6210,
      "Ġlies": 6211,
      "road": 6212,
      "Ġgone": 6213,
      "imet": 6214,
      "Ġstated": 6215,
      "ĠWal": 6216,
      "ĠFar": 6217,
      "ĠFort": 6218,
      "ĠDon": 6219,
      "Ġspend": 6220,
      "Ġsharks": 6221,
      "ĠKr": 6222,
      "ĠKu": 6223,
      "ugby": 6224,
      "Ġplane": 6225,
      "fully": 6226,
      "ext": 6227,
      "Ġ1963": 6228,
      "Ġartificial": 6229,
      "Ġkeeps": 6230,
      "Ġfactory": 6231,
      "Ġsixth": 6232,
      "Ġtwelve": 6233,
      "Ġrepresented": 6234,
      "ĠEnter": 6235,
      "Ġsubstances": 6236,
      "Ġprinted": 6237,
      "Ġnutri": 6238,
      "ĠCathedral": 6239,
      "ĠSocialist": 6240,
      "ĠOttoman": 6241,
      "Ã¦dia": 6242,
      "vereign": 6243,
      "Euro": 6244,
      "Ġap": 6245,
      "inth": 6246,
      "isis": 6247,
      "Ġbin": 6248,
      "itage": 6249,
      "ittle": 6250,
      "Ġpure": 6251,
      "Ġfiction": 6252,
      "Ġhab": 6253,
      "Ġdense": 6254,
      "Ġdynasty": 6255,
      "ĠTen": 6256,
      "Ġnudity": 6257,
      "Ġstaff": 6258,
      "ĠBil": 6259,
      "ĠBern": 6260,
      "char": 6261,
      "ĠLis": 6262,
      "ĠLong": 6263,
      "Ġcomed": 6264,
      "ighth": 6265,
      "ĠOS": 6266,
      "Ġtrained": 6267,
      "ĠKen": 6268,
      "Ġtea": 6269,
      "Ġmuscles": 6270,
      "Ġherb": 6271,
      "icted": 6272,
      "Ġrecomm": 6273,
      "ysics": 6274,
      "Ġending": 6275,
      "Ġflash": 6276,
      "Ġgenetic": 6277,
      "Ġ1961": 6278,
      "Ġfollowers": 6279,
      "Ġmembr": 6280,
      "Ġ1941": 6281,
      "Ġskills": 6282,
      "Ġ1956": 6283,
      "Ġtraditions": 6284,
      "Ġgreatly": 6285,
      "ethoven": 6286,
      "Ġcompleted": 6287,
      "Ġvalues": 6288,
      "Ġmarked": 6289,
      "ĠWeb": 6290,
      "largest": 6291,
      "itanic": 6292,
      "Ġadvanced": 6293,
      "Ġhomes": 6294,
      "Ġfailure": 6295,
      "ĠPalace": 6296,
      "ĠJeff": 6297,
      "Ġguns": 6298,
      "Ġnouns": 6299,
      "writer": 6300,
      "Ġnewspaper": 6301,
      "Ġgradu": 6302,
      "Ġranked": 6303,
      "speaking": 6304,
      "ĠVictoria": 6305,
      "Ġnecessary": 6306,
      "ĠIndependence": 6307,
      "Ġchromos": 6308,
      "ĠAntarctica": 6309,
      "Ġbattles": 6310,
      "ĠKennedy": 6311,
      "Ġorientation": 6312,
      "\";": 6313,
      "48": 6314,
      "Mic": 6315,
      "aud": 6316,
      "don": 6317,
      "ha": 6318,
      "lake": 6319,
      "Ġathlet": 6320,
      "real": 6321,
      "Ġsales": 6322,
      "Ġcore": 6323,
      "Ġbonds": 6324,
      "iting": 6325,
      "itors": 6326,
      "itational": 6327,
      "Ġmercury": 6328,
      "Ġpor": 6329,
      "ĠSqu": 6330,
      "Ġreject": 6331,
      "ĠMans": 6332,
      "ĠEv": 6333,
      "ĠEminem": 6334,
      "ĠPet": 6335,
      "sea": 6336,
      "Ġhem": 6337,
      "Ġrit": 6338,
      "Ġraped": 6339,
      "ĠJohann": 6340,
      "Ġchain": 6341,
      "ĠKim": 6342,
      "orest": 6343,
      "gebra": 6344,
      "okÃ©": 6345,
      "Ġarms": 6346,
      "perial": 6347,
      "Ġclay": 6348,
      "Ġclock": 6349,
      "Ġdifferently": 6350,
      "Ġtex": 6351,
      "ĠAnn": 6352,
      "annica": 6353,
      "Ġincome": 6354,
      "Ġcausing": 6355,
      "Ġdeaths": 6356,
      "Ġexplos": 6357,
      "Ġemperor": 6358,
      "Ġsolar": 6359,
      "Ġcollection": 6360,
      "ĠTurk": 6361,
      "iscons": 6362,
      "Ġexperiments": 6363,
      "Ġtranslated": 6364,
      "Ġwavelength": 6365,
      "ĠBuddha": 6366,
      "Ġcommunication": 6367,
      "ĠValley": 6368,
      "Ġbrowser": 6369,
      "ĠTokyo": 6370,
      "Ġalternative": 6371,
      "Ġsafety": 6372,
      "West": 6373,
      "rad": 6374,
      "Ġion": 6375,
      "Ġcoc": 6376,
      "Ġmap": 6377,
      "Ġnaked": 6378,
      "Ġbeaches": 6379,
      "ĠSum": 6380,
      "ĠScientists": 6381,
      "ĠAzerbai": 6382,
      "oly": 6383,
      "verse": 6384,
      "ĠMoses": 6385,
      "ĠBu": 6386,
      "Ġmob": 6387,
      "ĠPuerto": 6388,
      "ĠGood": 6389,
      "ĠGothic": 6390,
      "odern": 6391,
      "ĠRad": 6392,
      "ĠRonald": 6393,
      "ĠDistrict": 6394,
      "Ġworth": 6395,
      "Ġconsole": 6396,
      "Ġexerc": 6397,
      "ĠOhio": 6398,
      "ocity": 6399,
      "ĠStalin": 6400,
      "aval": 6401,
      "assic": 6402,
      "Ġimages": 6403,
      "Ġenemy": 6404,
      "action": 6405,
      "ciences": 6406,
      "Ġmayor": 6407,
      "Ġperhaps": 6408,
      "Ġmetaph": 6409,
      "Ġapple": 6410,
      "Ġhelium": 6411,
      "Ġdecor": 6412,
      "Ġparks": 6413,
      "Ġfeathers": 6414,
      "Ġscore": 6415,
      "Ġairport": 6416,
      "Ġcrim": 6417,
      "Ġexpected": 6418,
      "Ġsigns": 6419,
      "Ġfinding": 6420,
      "Ġpenal": 6421,
      "Ġstream": 6422,
      "Ġviews": 6423,
      "Ġclaims": 6424,
      "Ġsurvived": 6425,
      "Ġstructures": 6426,
      "Ġbabies": 6427,
      "Ġdefeat": 6428,
      "Ġentirely": 6429,
      "Ġastronomy": 6430,
      "Ġpoetry": 6431,
      "ĠSaudi": 6432,
      "Ġagriculture": 6433,
      "isconsin": 6434,
      "\":": 6435,
      ");": 6436,
      "Mon": 6437,
      "har": 6438,
      "lom": 6439,
      "mm": 6440,
      "inn": 6441,
      "Ġcyl": 6442,
      "Ġpil": 6443,
      "Ġpet": 6444,
      "Ġdinosaur": 6445,
      "ĠSur": 6446,
      "Ġgiant": 6447,
      "ima": 6448,
      "Ġwaste": 6449,
      "ĠMill": 6450,
      "ĠHot": 6451,
      "Ġprogress": 6452,
      "iance": 6453,
      "Ġvow": 6454,
      "aks": 6455,
      "Ġunknown": 6456,
      "ession": 6457,
      "Ġwheat": 6458,
      "ĠKy": 6459,
      "aret": 6460,
      "ĠVI": 6461,
      "cluding": 6462,
      "Ġages": 6463,
      "Ġorganizations": 6464,
      "And": 6465,
      "Ġexplained": 6466,
      "onym": 6467,
      "engers": 6468,
      "Ġglucose": 6469,
      "bey": 6470,
      "Ġfunctions": 6471,
      "Ġcoastal": 6472,
      "shire": 6473,
      "ĠAndrew": 6474,
      "Christ": 6475,
      "Ġfalls": 6476,
      "Ġstreets": 6477,
      "Ġdigest": 6478,
      "Ġdamaged": 6479,
      "Ġnewspapers": 6480,
      "Ġclouds": 6481,
      "Ġhormones": 6482,
      "thesis": 6483,
      "ĠDivision": 6484,
      "Ġbenef": 6485,
      "Ġsucceeded": 6486,
      "Ġpermanent": 6487,
      "69": 6488,
      "Me": 6489,
      "flies": 6490,
      "mel": 6491,
      "people": 6492,
      "rid": 6493,
      "uins": 6494,
      "works": 6495,
      "yan": 6496,
      "Ġx": 6497,
      "Ġov": 6498,
      "Ġsizes": 6499,
      "Ġmac": 6500,
      "ami": 6501,
      "ĠCay": 6502,
      "Ġ(;": 6503,
      "ĠHow": 6504,
      "ĠBach": 6505,
      "ĠDel": 6506,
      "Ġcann": 6507,
      "ĠInstitute": 6508,
      "Ġproof": 6509,
      "ĠUt": 6510,
      "anging": 6511,
      "Ind": 6512,
      "ucing": 6513,
      "ordan": 6514,
      "Ġencyclop": 6515,
      "aws": 6516,
      "ildren": 6517,
      "Ġstrange": 6518,
      "oving": 6519,
      "ĠForce": 6520,
      "idden": 6521,
      "ĠGrant": 6522,
      "ipped": 6523,
      "ĠXbox": 6524,
      "Ġappearance": 6525,
      "Ġresulted": 6526,
      "Ġmeasurement": 6527,
      "ictionary": 6528,
      "Ġdemonstr": 6529,
      "Ġproposed": 6530,
      "Ġindividuals": 6531,
      "While": 6532,
      "Ġmessages": 6533,
      "Ġsettlers": 6534,
      "Ġabsorb": 6535,
      "ĠMcC": 6536,
      "ĠCommunist": 6537,
      "Ġgalaxy": 6538,
      "Ġprinciple": 6539,
      "cription": 6540,
      "Ġtalks": 6541,
      "Ġtissue": 6542,
      "Ġcomplicated": 6543,
      "Ġnitrogen": 6544,
      "ĠTaliban": 6545,
      "ĠColombia": 6546,
      "okÃ©mon": 6547,
      "35": 6548,
      "68": 6549,
      "nel": 6550,
      "ray": 6551,
      "uania": 6552,
      "Ġvel": 6553,
      "Ġtail": 6554,
      "inter": 6555,
      "Ġwindows": 6556,
      "esb": 6557,
      "enz": 6558,
      "Ġbond": 6559,
      "itt": 6560,
      "Ġfold": 6561,
      "ingway": 6562,
      "oming": 6563,
      "ĠTa": 6564,
      "etts": 6565,
      "ĠMach": 6566,
      "Ġstorage": 6567,
      "uns": 6568,
      "ĠBow": 6569,
      "ĠBell": 6570,
      "ĠPole": 6571,
      "ĠLady": 6572,
      "ĠDi": 6573,
      "Ġnotable": 6574,
      "ivals": 6575,
      "ĠJama": 6576,
      "berlake": 6577,
      "Ġtruth": 6578,
      "ogen": 6579,
      "ogether": 6580,
      "achus": 6581,
      "Ġadap": 6582,
      "Ġdestr": 6583,
      "Ġearned": 6584,
      "Ġgene": 6585,
      "anchester": 6586,
      "Ġ1966": 6587,
      "Ġtransfer": 6588,
      "Ġtransgender": 6589,
      "Ġ1946": 6590,
      "Ġrulers": 6591,
      "Ġprotection": 6592,
      "Ġheadquarters": 6593,
      "Ġexplan": 6594,
      "ashion": 6595,
      "Ġboat": 6596,
      "Ġincreases": 6597,
      "Ġmodels": 6598,
      "ĠAngel": 6599,
      "Ġtesticles": 6600,
      "ĠEgyptian": 6601,
      "Ġoccurred": 6602,
      "Ġcombination": 6603,
      "Ġrelationships": 6604,
      "Ġsatell": 6605,
      "Ġcandidate": 6606,
      "Ġfalse": 6607,
      "ĠIndonesia": 6608,
      "ĠArgentina": 6609,
      "ĠColorado": 6610,
      "38": 6611,
      "49": 6612,
      "Col": 6613,
      "chen": 6614,
      "pop": 6615,
      "ss": 6616,
      "via": 6617,
      "Ġaer": 6618,
      "Ġsort": 6619,
      "Ġsoutheast": 6620,
      "organ": 6621,
      "Ġmention": 6622,
      "Ġpit": 6623,
      "leg": 6624,
      "Ġhur": 6625,
      "Ġthus": 6626,
      "ĠSol": 6627,
      "rol": 6628,
      "ĠCont": 6629,
      "ĠHIV": 6630,
      "ulate": 6631,
      "cha": 6632,
      "ĠGib": 6633,
      "ĠJim": 6634,
      "Ġchart": 6635,
      "ĠUl": 6636,
      "abama": 6637,
      "Ġcomposed": 6638,
      "pped": 6639,
      "ample": 6640,
      "Ġoverth": 6641,
      "Ġmeteor": 6642,
      "Ġeverywhere": 6643,
      "Ġmanaged": 6644,
      "Ġfollows": 6645,
      "Ġairpl": 6646,
      "ograp": 6647,
      "ynes": 6648,
      "Ġpeninsula": 6649,
      "Ġsocialist": 6650,
      "Ġresponse": 6651,
      "minster": 6652,
      "Ġbiological": 6653,
      "Ġgoddess": 6654,
      "ĠBelarus": 6655,
      "Ġcivilization": 6656,
      "Ġassist": 6657,
      "Ġlayers": 6658,
      "Ġcompetition": 6659,
      "Ġvillages": 6660,
      "Ġregularly": 6661,
      "Ġtherapy": 6662,
      "Ġordinary": 6663,
      "Ġarmies": 6664,
      "Ġceremony": 6665,
      "Ġisotopes": 6666,
      "Ġinspired": 6667,
      "Ġnickname": 6668,
      "ĠSerbia": 6669,
      "Ġunusual": 6670,
      "achusetts": 6671,
      "!\"": 6672,
      "fish": 6673,
      "father": 6674,
      "host": 6675,
      "mond": 6676,
      "pect": 6677,
      "Ġtests": 6678,
      "eras": 6679,
      "erts": 6680,
      "Ġwaters": 6681,
      "Ġcaught": 6682,
      "Ġcensus": 6683,
      "Ġbath": 6684,
      "itarian": 6685,
      "Ġinternal": 6686,
      "lyn": 6687,
      "iga": 6688,
      "Ġwhale": 6689,
      "andom": 6690,
      "ĠPo": 6691,
      "ĠRights": 6692,
      "ĠDS": 6693,
      "ĠDVD": 6694,
      "Ġworn": 6695,
      "anted": 6696,
      "antic": 6697,
      "ardens": 6698,
      "Ġsoap": 6699,
      "Ġrot": 6700,
      "Ġpopulated": 6701,
      "Ġactual": 6702,
      "Ġindic": 6703,
      "ĠMarvin": 6704,
      "Ġdecision": 6705,
      "issance": 6706,
      "Ġmanag": 6707,
      "Ġ1962": 6708,
      "ĠComics": 6709,
      "Ġdefend": 6710,
      "ĠRepresent": 6711,
      "Ġcontinues": 6712,
      "yram": 6713,
      "Ġindustries": 6714,
      "ĠAmong": 6715,
      "Ġarchae": 6716,
      "Ġchoice": 6717,
      "Ġcapture": 6718,
      "tario": 6719,
      "Ġexperiences": 6720,
      "ĠCoast": 6721,
      "Ġdialects": 6722,
      "Ġinvolve": 6723,
      "ĠHemisphere": 6724,
      "Ġfluid": 6725,
      "epsi": 6726,
      "angelo": 6727,
      "ĠLibya": 6728,
      "Ġstrength": 6729,
      "Ġelectromagnetic": 6730,
      "64": 6731,
      "Every": 6732,
      "Here": 6733,
      "Henry": 6734,
      "down": 6735,
      "ris": 6736,
      "wait": 6737,
      "Ġ#": 6738,
      "inated": 6739,
      "aning": 6740,
      "Ġsus": 6741,
      "Ġwat": 6742,
      "Ġfine": 6743,
      "icial": 6744,
      "ĠSong": 6745,
      "stone": 6746,
      "olis": 6747,
      "etes": 6748,
      "ette": 6749,
      "ĠMark": 6750,
      "ĠPop": 6751,
      "ĠWat": 6752,
      "ĠNic": 6753,
      "Ġsuit": 6754,
      "Ġspot": 6755,
      "ĠOklahoma": 6756,
      "akh": 6757,
      "Ġlets": 6758,
      "ĠKir": 6759,
      "Ġcontact": 6760,
      "Ġrow": 6761,
      "Ġcommand": 6762,
      "Ġ38": 6763,
      "Ġpolic": 6764,
      "Ġapplied": 6765,
      "Ġdidn": 6766,
      "Ġflo": 6767,
      "Ġbrief": 6768,
      "Ġamphib": 6769,
      "Ġpopularity": 6770,
      "Ġinsect": 6771,
      "Ġ1948": 6772,
      "Ġdownlo": 6773,
      "ĠBeethoven": 6774,
      "Ġprotest": 6775,
      "ĠCarl": 6776,
      "Ġheads": 6777,
      "Ġperiods": 6778,
      "ĠAdd": 6779,
      "Ġvotes": 6780,
      "ĠWilliams": 6781,
      "ĠIron": 6782,
      "Ġextinct": 6783,
      "Ġtalked": 6784,
      "Ġstreet": 6785,
      "puter": 6786,
      "Ġunderstanding": 6787,
      "ĠSociety": 6788,
      "onna": 6789,
      "ĠSatur": 6790,
      "Ġexecutive": 6791,
      "Ġsurrounding": 6792,
      "Ġscholars": 6793,
      "Ġtherm": 6794,
      "Ġelephants": 6795,
      "Ġepisode": 6796,
      "ĠLenin": 6797,
      "ĠAristotle": 6798,
      "Ġnutrients": 6799,
      "Europe": 6800,
      "TV": 6801,
      "William": 6802,
      "bow": 6803,
      "gon": 6804,
      "Åį": 6805,
      "Ġtens": 6806,
      "Ġsave": 6807,
      "Ġsets": 6808,
      "Ġwid": 6809,
      "Ġcosm": 6810,
      "orf": 6811,
      "Ġances": 6812,
      "aron": 6813,
      "Ġmaps": 6814,
      "Ġfav": 6815,
      "Ġfile": 6816,
      "Ġing": 6817,
      "asure": 6818,
      "roph": 6819,
      "ĠCard": 6820,
      "ĠCastle": 6821,
      "ĠHarrison": 6822,
      "ĠBre": 6823,
      "ĠGand": 6824,
      "Ġrural": 6825,
      "ĠWomen": 6826,
      "ĠLao": 6827,
      "osh": 6828,
      "Ġvibr": 6829,
      "about": 6830,
      "Ġseg": 6831,
      "Ġshut": 6832,
      "izza": 6833,
      "ucks": 6834,
      "render": 6835,
      "tee": 6836,
      "Ġspectr": 6837,
      "Ġdecisions": 6838,
      "Ġeveryday": 6839,
      "Ġmeanings": 6840,
      "Ġremaining": 6841,
      "ĠOno": 6842,
      "ĠQur": 6843,
      "Ġseeing": 6844,
      "ennis": 6845,
      "atican": 6846,
      "Ġputting": 6847,
      "ĠGroup": 6848,
      "Ġstops": 6849,
      "ylan": 6850,
      "Ġregional": 6851,
      "Ġpositions": 6852,
      "Ġstatement": 6853,
      "Ġgeometry": 6854,
      "Ġdrinking": 6855,
      "uffy": 6856,
      "Ġattempts": 6857,
      "ĠModel": 6858,
      "ranus": 6859,
      "Ġselection": 6860,
      "zyme": 6861,
      "ĠJudaism": 6862,
      "Ġintegr": 6863,
      "Ġdiplom": 6864,
      "ĠSpecial": 6865,
      "tebrates": 6866,
      "ĠBaltic": 6867,
      "Ġcousin": 6868,
      "Ġmobile": 6869,
      "Ġpenalty": 6870,
      "43": 6871,
      "Her": 6872,
      "din": 6873,
      "gian": 6874,
      "lict": 6875,
      "zing": 6876,
      "Ġtheatre": 6877,
      "Ġcows": 6878,
      "onian": 6879,
      "atr": 6880,
      "enberg": 6881,
      "Ġbinary": 6882,
      "Ġfear": 6883,
      "Ġinstit": 6884,
      "Ġhill": 6885,
      "Ġhills": 6886,
      "Ġloved": 6887,
      "Ġnude": 6888,
      "Ġnarrow": 6889,
      "Ġejac": 6890,
      "ĠAp": 6891,
      "Ġgain": 6892,
      "olics": 6893,
      "opher": 6894,
      "ĠMain": 6895,
      "Ġforward": 6896,
      "eless": 6897,
      "ĠBure": 6898,
      "ĠBank": 6899,
      "Ġwhales": 6900,
      "ĠWisconsin": 6901,
      "trav": 6902,
      "ĠFe": 6903,
      "Ġ1918": 6904,
      "illes": 6905,
      "illing": 6906,
      "Ġplates": 6907,
      "Ġvon": 6908,
      "ende": 6909,
      "Ġtrian": 6910,
      "Ġtraff": 6911,
      "Ġunc": 6912,
      "ipment": 6913,
      "Ġgramm": 6914,
      "Ġprayer": 6915,
      "Ġ33": 6916,
      "Ġdragon": 6917,
      "Ġdrinks": 6918,
      "ova": 6919,
      "ĠSpart": 6920,
      "Ġsurrender": 6921,
      "Ġsecondary": 6922,
      "Ġmedium": 6923,
      "Ġcontroll": 6924,
      "anny": 6925,
      "Ġ160": 6926,
      "Ġ1954": 6927,
      "ĠBridge": 6928,
      "Ġretired": 6929,
      "ĠâĢĶ": 6930,
      "Ġfiles": 6931,
      "Ġdistances": 6932,
      "Ġphysic": 6933,
      "Ġzone": 6934,
      "Ġtelling": 6935,
      "ucky": 6936,
      "Ġstatue": 6937,
      "ĠSoon": 6938,
      "Ġassass": 6939,
      "Ġphotos": 6940,
      "Ġpotential": 6941,
      "Ġvisitors": 6942,
      "Ġabsolute": 6943,
      "abbath": 6944,
      "Ġobserved": 6945,
      "Ġachieve": 6946,
      "ĠPeninsula": 6947,
      "ovakia": 6948,
      "ĠPennsylvania": 6949,
      "Ġvelocity": 6950,
      "ĠSaturday": 6951,
      "Car": 6952,
      "God": 6953,
      "fly": 6954,
      "iot": 6955,
      "night": 6956,
      "Ġsad": 6957,
      "ori": 6958,
      "Ġpunk": 6959,
      "Ġded": 6960,
      "Ġbeings": 6961,
      "Ġeld": 6962,
      "ĠMaced": 6963,
      "Ġorchestra": 6964,
      "ĠPublic": 6965,
      "ĠWild": 6966,
      "osl": 6967,
      "Ġproved": 6968,
      "ianism": 6969,
      "Ġsees": 6970,
      "Ġseems": 6971,
      "aka": 6972,
      "ogue": 6973,
      "assium": 6974,
      "raf": 6975,
      "ublics": 6976,
      "ĠAround": 6977,
      "Ġindigenous": 6978,
      "Ġdecades": 6979,
      "bridge": 6980,
      "elson": 6981,
      "Ġintercour": 6982,
      "Ġoffices": 6983,
      "ennes": 6984,
      "Ġcommunism": 6985,
      "ĠPlato": 6986,
      "Ġmassive": 6987,
      "Ġdiscover": 6988,
      "ĠAmaz": 6989,
      "Ġrepresents": 6990,
      "ymes": 6991,
      "ambod": 6992,
      "affe": 6993,
      "Ġfeeling": 6994,
      "Ġangry": 6995,
      "eltic": 6996,
      "Ġcolonial": 6997,
      "ĠSupreme": 6998,
      "ederation": 6999,
      "Ġgravitational": 7000,
      "Ġvolcanoes": 7001,
      "ĠFloren": 7002,
      "Ġkilometres": 7003,
      "Ġliberal": 7004,
      "Ġsuffering": 7005,
      "Ġpaintings": 7006,
      "Ġbreathe": 7007,
      "ĠBahrain": 7008,
      "Ġlibrary": 7009,
      "ĠMozart": 7010,
      "Ġcryst": 7011,
      "Ġaudience": 7012,
      "Ġconfirmed": 7013,
      "Ġintercourse": 7014,
      "%),": 7015,
      "Dr": 7016,
      "dis": 7017,
      "names": 7018,
      "uum": 7019,
      "worth": 7020,
      "Ġtur": 7021,
      "Ġtong": 7022,
      "esides": 7023,
      "Ġfavor": 7024,
      "Ġdut": 7025,
      "Ġdress": 7026,
      "ilty": 7027,
      "ĠSocrates": 7028,
      "ĠMun": 7029,
      "ĠManchester": 7030,
      "ura": 7031,
      "Ġstret": 7032,
      "ĠPict": 7033,
      "agr": 7034,
      "ĠGh": 7035,
      "ĠRena": 7036,
      "ĠFame": 7037,
      "ĠNight": 7038,
      "Ġcalls": 7039,
      "ĠKong": 7040,
      "Ġgoals": 7041,
      "ously": 7042,
      "ogle": 7043,
      "ĠStar": 7044,
      "ĠChap": 7045,
      "ibly": 7046,
      "anguage": 7047,
      "Ġleads": 7048,
      "ĠOntario": 7049,
      "Ġincor": 7050,
      "Ġ1959": 7051,
      "ĠAllies": 7052,
      "ĠWhat": 7053,
      "Ġtournam": 7054,
      "ĠAndes": 7055,
      "Ġerupt": 7056,
      "Ġcheese": 7057,
      "Ġhappening": 7058,
      "Ġpractices": 7059,
      "Ġresear": 7060,
      "Ġburned": 7061,
      "Ġestablish": 7062,
      "Ġoffered": 7063,
      "Ġdialect": 7064,
      "Ġrenamed": 7065,
      "ĠHawaiian": 7066,
      "Ġpatterns": 7067,
      "ĠPanama": 7068,
      "Ġrelatively": 7069,
      "Ġconservative": 7070,
      "Ġsulfur": 7071,
      "Ġcontroversial": 7072,
      "ĠStephen": 7073,
      "Ġspacecraft": 7074,
      "ĠMalaysia": 7075,
      "traviolet": 7076,
      "%)": 7077,
      "51": 7078,
      "</": 7079,
      "Am": 7080,
      "BA": 7081,
      "Geor": 7082,
      "Over": 7083,
      "TO": 7084,
      "after": 7085,
      "bro": 7086,
      "lines": 7087,
      "ni": 7088,
      "oys": 7089,
      "Ġsons": 7090,
      "ati": 7091,
      "Ġbot": 7092,
      "Ġbanned": 7093,
      "Ġbombs": 7094,
      "alle": 7095,
      "Ġfilled": 7096,
      "Ġdiverse": 7097,
      "Ġlens": 7098,
      "Ġlosing": 7099,
      "Ġnatur": 7100,
      "ĠSub": 7101,
      "Ġgardens": 7102,
      "Ġ120": 7103,
      "iders": 7104,
      "ĠCold": 7105,
      "aya": 7106,
      "ĠMP": 7107,
      "ĠMond": 7108,
      "ĠHu": 7109,
      "ĠHell": 7110,
      "ulated": 7111,
      "ĠPier": 7112,
      "emen": 7113,
      "Ġrom": 7114,
      "ĠDynasty": 7115,
      "Ġworse": 7116,
      "berry": 7117,
      "Ġleather": 7118,
      "Ġuns": 7119,
      "Ġabuse": 7120,
      "ipedia": 7121,
      "Ġarts": 7122,
      "ogy": 7123,
      "ĠStat": 7124,
      "ĠChad": 7125,
      "reek": 7126,
      "Ġsovereign": 7127,
      "Ġcoins": 7128,
      "Ġ--": 7129,
      "crim": 7130,
      "ĠAdvent": 7131,
      "Ġpencil": 7132,
      "Ġpainted": 7133,
      "Ġsocialism": 7134,
      "Ġofficials": 7135,
      "ĠGuinea": 7136,
      "sterdam": 7137,
      "ĠHollywood": 7138,
      "Ġannual": 7139,
      "âĢĿ.": 7140,
      "urtles": 7141,
      "Ġviolin": 7142,
      "Ġviolent": 7143,
      "Ġpredators": 7144,
      "Ġcelebrate": 7145,
      "Ġattracted": 7146,
      "Ġsituation": 7147,
      "Ġdrawing": 7148,
      "Ġcameras": 7149,
      "Ġconstitutional": 7150,
      "mitted": 7151,
      "Ġpronounced": 7152,
      "Ġdivorce": 7153,
      "ĠTimberlake": 7154,
      "Ġlegislature": 7155,
      "bourne": 7156,
      "Ġdwarf": 7157,
      "Ġmasturbation": 7158,
      "Ġtower": 7159,
      "Ġroughly": 7160,
      "English": 7161,
      "Ġsharp": 7162,
      "heimer": 7163,
      "ĠOxford": 7164,
      "Ġbasketball": 7165,
      "ĠEritrea": 7166,
      "Ġadapted": 7167,
      "ĠRepresentatives": 7168,
      "\"\"": 7169,
      "87": 7170,
      "aug": 7171,
      "car": 7172,
      "dden": 7173,
      "ko": 7174,
      "kins": 7175,
      "oids": 7176,
      "pat": 7177,
      "uador": 7178,
      "zen": 7179,
      "inally": 7180,
      "inations": 7181,
      "Ġcotton": 7182,
      "Ġbull": 7183,
      "Ġmath": 7184,
      "Ġpurch": 7185,
      "Ġfro": 7186,
      "asma": 7187,
      "Ġdates": 7188,
      "sters": 7189,
      "Ġgay": 7190,
      "ĠIP": 7191,
      "ett": 7192,
      "Ġrect": 7193,
      "imals": 7194,
      "andin": 7195,
      "Ġrival": 7196,
      "ĠWy": 7197,
      "ĠWood": 7198,
      "ĠRica": 7199,
      "ĠDylan": 7200,
      "Ġsuff": 7201,
      "Ġsudden": 7202,
      "ĠUr": 7203,
      "Ġspr": 7204,
      "ansion": 7205,
      "ĠKant": 7206,
      "ĠStan": 7207,
      "ĠVer": 7208,
      "ĠVatican": 7209,
      "Ġwrites": 7210,
      "Ġpoem": 7211,
      "Ġchildhood": 7212,
      "Ġcapitalism": 7213,
      "Ġattached": 7214,
      "Ġinfr": 7215,
      "prise": 7216,
      "ossible": 7217,
      "Ġsocieties": 7218,
      "Ġvariable": 7219,
      "Ġnorthwest": 7220,
      "ushi": 7221,
      "ĠâĢĺ": 7222,
      "Ġ1936": 7223,
      "Ġ1939": 7224,
      "Ġstandards": 7225,
      "Ġready": 7226,
      "Ġimpact": 7227,
      "Ġtourist": 7228,
      "Ġdiscovery": 7229,
      "Ġhousehold": 7230,
      "Ġconflict": 7231,
      "Ã¼r": 7232,
      "Ġphoton": 7233,
      "Ġliquids": 7234,
      "Ġsunlight": 7235,
      "Ġwinds": 7236,
      "Ġlogic": 7237,
      "ĠPeru": 7238,
      "Ġpreviously": 7239,
      "ĠPhilip": 7240,
      "Ġvaccines": 7241,
      "Ġshooting": 7242,
      "Ġorders": 7243,
      "ĠToronto": 7244,
      "Ġcommitted": 7245,
      "iabetes": 7246,
      "tainment": 7247,
      "ĠMassachusetts": 7248,
      "Ġearthquakes": 7249,
      "Ġmunicipalities": 7250,
      "Ġvessels": 7251,
      "Ġapproximately": 7252,
      "Ġtexts": 7253,
      "Ġingred": 7254,
      "36": 7255,
      "39": 7256,
      "59": 7257,
      "Bill": 7258,
      "No": 7259,
      "Roman": 7260,
      "So": 7261,
      "Titanic": 7262,
      "ooth": 7263,
      "sl": 7264,
      "selling": 7265,
      "tit": 7266,
      "yer": 7267,
      "zheimer": 7268,
      "á»": 7269,
      "inburgh": 7270,
      "including": 7271,
      "Ġchess": 7272,
      "Ġbits": 7273,
      "orph": 7274,
      "Ġmission": 7275,
      "Ġlat": 7276,
      "Ġbeer": 7277,
      "ĠSuch": 7278,
      "acc": 7279,
      "acing": 7280,
      "Ġstress": 7281,
      "Ġalgebra": 7282,
      "Ġ(,": 7283,
      "unction": 7284,
      "ĠHel": 7285,
      "ĠBetween": 7286,
      "that": 7287,
      "ĠEp": 7288,
      "umps": 7289,
      "ĠGall": 7290,
      "ĠFA": 7291,
      "ĠDomin": 7292,
      "ĠOper": 7293,
      "abr": 7294,
      "abs": 7295,
      "Ġcalling": 7296,
      "Ġtruck": 7297,
      "ials": 7298,
      "Ġcount": 7299,
      "oker": 7300,
      "ĠChannel": 7301,
      "Ġknows": 7302,
      "Ġrooms": 7303,
      "raid": 7304,
      "ĠYoung": 7305,
      "Ġbronze": 7306,
      "Ġexpress": 7307,
      "Ġ1952": 7308,
      "ĠDeclaration": 7309,
      "Ġstrongly": 7310,
      "Ġcontrols": 7311,
      "Ġshortly": 7312,
      "Ġtopics": 7313,
      "ĠAbbey": 7314,
      "Ġtourism": 7315,
      "Ġprocesses": 7316,
      "Ġtreaty": 7317,
      "Ġantib": 7318,
      "shaped": 7319,
      "Ġpatient": 7320,
      "ĠQuebec": 7321,
      "ĠMonaco": 7322,
      "Ġcharacteristics": 7323,
      "ythm": 7324,
      "Ġhunt": 7325,
      "Ġtallest": 7326,
      "Ġnovels": 7327,
      "ĠCornwall": 7328,
      "Black": 7329,
      "ĠMichelangelo": 7330,
      "roatia": 7331,
      "ĠDarwin": 7332,
      "Ġapplications": 7333,
      "Ġnortheast": 7334,
      "Ġchicken": 7335,
      "ĠMongol": 7336,
      "57": 7337,
      "Even": 7338,
      "Fl": 7339,
      "RC": 7340,
      "eer": 7341,
      "ees": 7342,
      "pers": 7343,
      "pret": 7344,
      "Ġaf": 7345,
      "Ġaud": 7346,
      "inate": 7347,
      "Ġbone": 7348,
      "Ġmate": 7349,
      "Ġpush": 7350,
      "asman": 7351,
      "ouver": 7352,
      "ĠTele": 7353,
      "Ġnom": 7354,
      "ĠSax": 7355,
      "ĠSabbath": 7356,
      "roke": 7357,
      "Ġgall": 7358,
      "ĠMur": 7359,
      "Ġstages": 7360,
      "ĠBand": 7361,
      "ounce": 7362,
      "chi": 7363,
      "ĠEll": 7364,
      "ĠPyth": 7365,
      "ĠPepsi": 7366,
      "umes": 7367,
      "Ġframe": 7368,
      "ĠRico": 7369,
      "Ġ1917": 7370,
      "ĠNick": 7371,
      "ivia": 7372,
      "Ġplural": 7373,
      "Ġcham": 7374,
      "Ġspaces": 7375,
      "antasy": 7376,
      "Ġabol": 7377,
      "ipel": 7378,
      "aust": 7379,
      "Ġclocks": 7380,
      "Ġadvent": 7381,
      "Ġrose": 7382,
      "ĠAlabama": 7383,
      "Ġpopulations": 7384,
      "Ġwritings": 7385,
      "ĠFriday": 7386,
      "Ġearn": 7387,
      "ĠSpace": 7388,
      "ancouver": 7389,
      "Ġthoughts": 7390,
      "appy": 7391,
      "geria": 7392,
      "elsius": 7393,
      "Ġmedieval": 7394,
      "Ġcrisis": 7395,
      "Ġtypical": 7396,
      "Ġ1958": 7397,
      "Ġtelephone": 7398,
      "Ġclassified": 7399,
      "Ġedge": 7400,
      "Ġempt": 7401,
      "Ġpassengers": 7402,
      "Ġwinning": 7403,
      "Ġcopy": 7404,
      "Ġcolleges": 7405,
      "Ġtraveled": 7406,
      "Ġrainfall": 7407,
      "who": 7408,
      "Ġpatients": 7409,
      "ĠCatholics": 7410,
      "Ġresulting": 7411,
      "ĠAmsterdam": 7412,
      "Ġobsess": 7413,
      "Ġadvant": 7414,
      "Ġpromised": 7415,
      "Ġargued": 7416,
      "Ġcooked": 7417,
      "Ġrebu": 7418,
      "Ġastronomers": 7419,
      "Ġmicrosc": 7420,
      "Ġvictory": 7421,
      "irteen": 7422,
      "About": 7423,
      "ĠLithuania": 7424,
      "Ġarrested": 7425,
      "Ġdictatorship": 7426,
      "Ġtraits": 7427,
      "Ġhabit": 7428,
      "ĠAzerbaijan": 7429,
      "ĠCayce": 7430,
      "ĠFlorence": 7431,
      "CD": 7432,
      "ais": 7433,
      "bul": 7434,
      "hr": 7435,
      "hol": 7436,
      "lad": 7437,
      "Ġic": 7438,
      "Ġsolution": 7439,
      "Ġsisters": 7440,
      "Ġwides": 7441,
      "isexual": 7442,
      "Ġcab": 7443,
      "oro": 7444,
      "orig": 7445,
      "alem": 7446,
      "Ġporn": 7447,
      "Ġfest": 7448,
      "Ġinner": 7449,
      "icient": 7450,
      "Ġhipp": 7451,
      "entric": 7452,
      "ila": 7453,
      "olve": 7454,
      "aylor": 7455,
      "ĠMust": 7456,
      "eland": 7457,
      "unch": 7458,
      "ĠHa": 7459,
      "ĠBon": 7460,
      "ithium": 7461,
      "ĠFound": 7462,
      "ĠFestival": 7463,
      "ĠLive": 7464,
      "ĠDou": 7465,
      "resp": 7466,
      "ĠJordan": 7467,
      "Ġplus": 7468,
      "abis": 7469,
      "Ġunable": 7470,
      "ellar": 7471,
      "Ġgrain": 7472,
      "irect": 7473,
      "ucation": 7474,
      "amps": 7475,
      "Ġaged": 7476,
      "ption": 7477,
      "Ġcolumn": 7478,
      "Ġsurvey": 7479,
      "onomous": 7480,
      "ika": 7481,
      "Ġsupplies": 7482,
      "uctive": 7483,
      "Ġpresidents": 7484,
      "Ġ1942": 7485,
      "Ġsignals": 7486,
      "Ġequival": 7487,
      "Ġequipment": 7488,
      "Ġ1933": 7489,
      "Ġimmun": 7490,
      "ĠProv": 7491,
      "what": 7492,
      "Ġdetail": 7493,
      "Ġ1922": 7494,
      "Ġproperly": 7495,
      "Ġangle": 7496,
      "Ġsupern": 7497,
      "Ġmedicines": 7498,
      "Ġwindow": 7499,
      "Ġadditional": 7500,
      "ĠHarry": 7501,
      "Ġexecuted": 7502,
      "ĠBuddhism": 7503,
      "Ġcollaps": 7504,
      "etroit": 7505,
      "Ġinvestig": 7506,
      "Ġtelescopes": 7507,
      "Ġpermission": 7508,
      "Ġentertainment": 7509,
      "Ġrevealed": 7510,
      "ĠManson": 7511,
      "Ġspectrum": 7512,
      "namese": 7513,
      "):": 7514,
      "52": 7515,
      "AM": 7516,
      "cing": 7517,
      "come": 7518,
      "Ġaim": 7519,
      "Ġaster": 7520,
      "Ġtheore": 7521,
      "onies": 7522,
      "Ġants": 7523,
      "Ġmas": 7524,
      "Ġphen": 7525,
      "Ġtoward": 7526,
      "oli": 7527,
      "Ġreaches": 7528,
      "ĠCeltic": 7529,
      "ĠMec": 7530,
      "uration": 7531,
      "ulpt": 7532,
      "andr": 7533,
      "ĠPut": 7534,
      "iform": 7535,
      "Ġric": 7536,
      "ĠWind": 7537,
      "ĠWork": 7538,
      "ĠDanish": 7539,
      "Ġplain": 7540,
      "ubrick": 7541,
      "ĠVis": 7542,
      "Ġprince": 7543,
      "ĠArm": 7544,
      "Ġresidents": 7545,
      "Ġmetres": 7546,
      "ailor": 7547,
      "Ġstrip": 7548,
      "Ġpoems": 7549,
      "Ġ48": 7550,
      "Ġinvention": 7551,
      "ĠAssembly": 7552,
      "Ġsupports": 7553,
      "Ġattend": 7554,
      "Ġdefense": 7555,
      "Ġmatrix": 7556,
      "Ġtransform": 7557,
      "Ġexpanded": 7558,
      "Ġinches": 7559,
      "Ġvaries": 7560,
      "ĠScandin": 7561,
      "Ġoccasion": 7562,
      "ĠSwiss": 7563,
      "Ġsentences": 7564,
      "Ġbadly": 7565,
      "Ġbirthday": 7566,
      "Ġengineers": 7567,
      "Ġguilty": 7568,
      "ĠMountain": 7569,
      "Ġfeelings": 7570,
      "Ġcamps": 7571,
      "ĠVietnamese": 7572,
      "ĠLouisiana": 7573,
      "Ġfigures": 7574,
      "ĠMandarin": 7575,
      "ĠWilson": 7576,
      "Ġadministration": 7577,
      "Ġadministrative": 7578,
      "Ġbattery": 7579,
      "Ġdiagnosed": 7580,
      "Ġtelescope": 7581,
      "Ġregarded": 7582,
      "Ġinfinite": 7583,
      "Ġdropped": 7584,
      "Ġfrogs": 7585,
      "Like": 7586,
      "Ne": 7587,
      "XX": 7588,
      "da": 7589,
      "fare": 7590,
      "mission": 7591,
      "po": 7592,
      "sch": 7593,
      "ssel": 7594,
      "uat": 7595,
      "vada": 7596,
      "zant": 7597,
      "Ġsang": 7598,
      "Ġsodium": 7599,
      "arians": 7600,
      "Ġharb": 7601,
      "Ġda": 7602,
      "Ġdoub": 7603,
      "Ġlights": 7604,
      "ĠSoutheast": 7605,
      "Ġemp": 7606,
      "Ġglands": 7607,
      "adition": 7608,
      "Ġrept": 7609,
      "imir": 7610,
      "imbab": 7611,
      "ĠMes": 7612,
      "ĠBal": 7613,
      "andard": 7614,
      "ĠEis": 7615,
      "ĠEur": 7616,
      "aints": 7617,
      "ĠWill": 7618,
      "ĠNem": 7619,
      "ĠDak": 7620,
      "ĠDifferent": 7621,
      "ĠOut": 7622,
      "Ġshoes": 7623,
      "Ġshops": 7624,
      "ups": 7625,
      "okes": 7626,
      "ogs": 7627,
      "ĠStock": 7628,
      "awn": 7629,
      "Ġjew": 7630,
      "Ġprices": 7631,
      "Ġformat": 7632,
      "Ġpope": 7633,
      "ĠAlmost": 7634,
      "Ġfounder": 7635,
      "Ġbridges": 7636,
      "Ġhelping": 7637,
      "Ġsculpt": 7638,
      "Ġ600": 7639,
      "Ġsevere": 7640,
      "Ġofficers": 7641,
      "ĠRomanian": 7642,
      "Ġcontinents": 7643,
      "ĠGermanic": 7644,
      "ĠClassical": 7645,
      "Ġsolve": 7646,
      "ĠBlue": 7647,
      "Ġstanding": 7648,
      "enez": 7649,
      "Ġdetect": 7650,
      "comp": 7651,
      "trait": 7652,
      "Ġpractical": 7653,
      "Ġ1905": 7654,
      "Ġvirt": 7655,
      "Ġbaseball": 7656,
      "Ġtribe": 7657,
      "aptain": 7658,
      "Ã¡n": 7659,
      "Ġsitu": 7660,
      "Ġcarrying": 7661,
      "Ġharvest": 7662,
      "Ġburning": 7663,
      "Ġimproved": 7664,
      "ĠWinter": 7665,
      "Ġtransportation": 7666,
      "ĠBrother": 7667,
      "Ġorgasm": 7668,
      "Ġjudge": 7669,
      "Ġvehicle": 7670,
      "Ġearthquake": 7671,
      "Ġdepartment": 7672,
      "Ġpulled": 7673,
      "ĠEntertainment": 7674,
      "Ġdinosaurs": 7675,
      "dinand": 7676,
      "Ġtraffic": 7677,
      "ennessee": 7678,
      "ĠRenaissance": 7679,
      "imbabwe": 7680,
      "63": 7681,
      "SP": 7682,
      "aac": 7683,
      "bed": 7684,
      "kansas": 7685,
      "mes": 7686,
      "pa": 7687,
      "ports": 7688,
      "uj": 7689,
      "ych": 7690,
      "zymes": 7691,
      "ĪĴ": 7692,
      "Ġtub": 7693,
      "Ġtube": 7694,
      "hea": 7695,
      "reas": 7696,
      "anas": 7697,
      "Ġbat": 7698,
      "Ġboot": 7699,
      "Ġbicy": 7700,
      "Ġanime": 7701,
      "Ġmis": 7702,
      "Ġmax": 7703,
      "Ġmaster": 7704,
      "Ġfing": 7705,
      "Ġfashion": 7706,
      "ĠTerrit": 7707,
      "Ġlyr": 7708,
      "ĠSar": 7709,
      "otam": 7710,
      "ĠCosta": 7711,
      "ĠMorm": 7712,
      "tered": 7713,
      "ĠBh": 7714,
      "andal": 7715,
      "uma": 7716,
      "umans": 7717,
      "Ġranges": 7718,
      "apse": 7719,
      "Ġusual": 7720,
      "ĠRay": 7721,
      "ĠLife": 7722,
      "ista": 7723,
      "resident": 7724,
      "Ġexam": 7725,
      "Ġseas": 7726,
      "ĠThus": 7727,
      "Ġcompil": 7728,
      "inding": 7729,
      "Ġtheme": 7730,
      "Ġimpr": 7731,
      "Ġenfor": 7732,
      "Ġformation": 7733,
      "ĠAny": 7734,
      "ĠAnton": 7735,
      "Ġpresented": 7736,
      "Ġpret": 7737,
      "onomy": 7738,
      "ollowing": 7739,
      "Ġ1943": 7740,
      "Ġsignal": 7741,
      "Ġexplains": 7742,
      "ĠUSSR": 7743,
      "Ġvector": 7744,
      "Ġcollected": 7745,
      "ĠQueens": 7746,
      "Ġholding": 7747,
      "ĠEgyptians": 7748,
      "ijing": 7749,
      "Ġmosque": 7750,
      "Ġferment": 7751,
      "Ġdebt": 7752,
      "Ġdebate": 7753,
      "Ġpowder": 7754,
      "olester": 7755,
      "ĠSwedish": 7756,
      "ĠBroad": 7757,
      "Ġmicro": 7758,
      "Ġcartoon": 7759,
      "Ġfeminism": 7760,
      "Ġrespectively": 7761,
      "Ġagricultural": 7762,
      "ĠGein": 7763,
      "Ġpushed": 7764,
      "erusalem": 7765,
      "Ġopinion": 7766,
      "Ġrestaurants": 7767,
      "Ġaccurate": 7768,
      "Ġclimates": 7769,
      "ĠSquare": 7770,
      "ĠUtah": 7771,
      "Ġpolicies": 7772,
      "ĠAmazon": 7773,
      "Ġtongue": 7774,
      "300": 7775,
      "85": 7776,
      "92": 7777,
      "Bel": 7778,
      "Later": 7779,
      "Pol": 7780,
      "You": 7781,
      "fox": 7782,
      "iece": 7783,
      "pox": 7784,
      "ĠÄ": 7785,
      "Ġcow": 7786,
      "enburg": 7787,
      "eda": 7788,
      "Ġborough": 7789,
      "itic": 7790,
      "Ġpairs": 7791,
      "leans": 7792,
      "Ġdu": 7793,
      "ĠTw": 7794,
      "using": 7795,
      "amous": 7796,
      "amental": 7797,
      "amanders": 7798,
      "ĠSus": 7799,
      "ĠSher": 7800,
      "ĠSud": 7801,
      "olling": 7802,
      "etus": 7803,
      "ĠCir": 7804,
      "ĠCamp": 7805,
      "ĠCambod": 7806,
      "ĠMess": 7807,
      "Ġstones": 7808,
      "unis": 7809,
      "unci": 7810,
      "ĠEarly": 7811,
      "ithm": 7812,
      "sexual": 7813,
      "aging": 7814,
      "ĠRos": 7815,
      "ĠNam": 7816,
      "Ġprove": 7817,
      "ĠUranus": 7818,
      "Ġkit": 7819,
      "Ġvide": 7820,
      "Ġshares": 7821,
      "Ġtrig": 7822,
      "Ġtrouble": 7823,
      "clus": 7824,
      "claim": 7825,
      "ĠVik": 7826,
      "Ġenc": 7827,
      "Ġenzyme": 7828,
      "rence": 7829,
      "ĠAlzheimer": 7830,
      "Ġoverall": 7831,
      "Ġnewly": 7832,
      "Ġresigned": 7833,
      "Ġgoverned": 7834,
      "Ġacted": 7835,
      "Ġapples": 7836,
      "oves": 7837,
      "ĠAss": 7838,
      "ikh": 7839,
      "Ġcharges": 7840,
      "arring": 7841,
      "Ġdoesn": 7842,
      "Ġruling": 7843,
      "atically": 7844,
      "Ġsupporting": 7845,
      "ĠOrleans": 7846,
      "rodo": 7847,
      "Ġfinish": 7848,
      "Ġoperations": 7849,
      "ĠEdinburgh": 7850,
      "ĠWestminster": 7851,
      "Ġreference": 7852,
      "Ġsuccessfully": 7853,
      "Ġholy": 7854,
      "Ġbordered": 7855,
      "ĠNorwe": 7856,
      "ĠRoad": 7857,
      "White": 7858,
      "Ġleadership": 7859,
      "Ġrebell": 7860,
      "chestr": 7861,
      "Ġflying": 7862,
      "Ġmythology": 7863,
      "ĠHemingway": 7864,
      "Ġelephant": 7865,
      "Ġderived": 7866,
      "obbes": 7867,
      "Ġspiritual": 7868,
      "Ġemergency": 7869,
      "Ġdistribution": 7870,
      "Ġultraviolet": 7871,
      "ĠObama": 7872,
      "ĠTemple": 7873,
      "Ġmembrane": 7874,
      "ĠTurkish": 7875,
      "ĠJamaica": 7876,
      "Ġsusp": 7877,
      "ĠMecca": 7878,
      "enezuel": 7879,
      "Ġlyrics": 7880,
      "34": 7881,
      "Gl": 7882,
      "Modern": 7883,
      "Pal": 7884,
      "burn": 7885,
      "iations": 7886,
      "pread": 7887,
      "ÅĤ": 7888,
      "Ġign": 7889,
      "isons": 7890,
      "Ġcricket": 7891,
      "Ġbases": 7892,
      "Ġpetro": 7893,
      "Ġfired": 7894,
      "Ġhoney": 7895,
      "Ġhired": 7896,
      "Ġlists": 7897,
      "ĠSalt": 7898,
      "ados": 7899,
      "verty": 7900,
      "ĠCO": 7901,
      "ĠChel": 7902,
      "uto": 7903,
      "ĠHob": 7904,
      "Ġheter": 7905,
      "ichol": 7906,
      "Ġchips": 7907,
      "Ġtracks": 7908,
      "ishn": 7909,
      "ella": 7910,
      "Ġmeets": 7911,
      "ppen": 7912,
      "Ġpartners": 7913,
      "Ġdisk": 7914,
      "onsai": 7915,
      "Ġcontest": 7916,
      "isms": 7917,
      "Ġsmell": 7918,
      "Ġquarks": 7919,
      "Ġpoverty": 7920,
      "Ġcrew": 7921,
      "Ġflute": 7922,
      "Ġwarmer": 7923,
      "Ġsurf": 7924,
      "Ġlanded": 7925,
      "Ġseconds": 7926,
      "Ġaccom": 7927,
      "Ġbackground": 7928,
      "Ġinterpret": 7929,
      "Ġexpression": 7930,
      "Ġequator": 7931,
      "ĠTrade": 7932,
      "Ġreduced": 7933,
      "ĠDef": 7934,
      "Ġimpossible": 7935,
      "Ġopposed": 7936,
      "Ġerect": 7937,
      "Ġcourts": 7938,
      "ĠHeritage": 7939,
      "Ġeffective": 7940,
      "celona": 7941,
      "Ġclosest": 7942,
      "ĠSomalia": 7943,
      "Ġwalking": 7944,
      "ĠFranklin": 7945,
      "Ġbankrupt": 7946,
      "ĠSteve": 7947,
      "Ã³n": 7948,
      "Ġinvolves": 7949,
      "Ġembry": 7950,
      "Ġenjoyed": 7951,
      "Ġreforms": 7952,
      "Ġsequence": 7953,
      "Ġlibraries": 7954,
      "Ġswimming": 7955,
      "ĠCapital": 7956,
      "Ġchloride": 7957,
      "ĠFamily": 7958,
      "Ġmuseums": 7959,
      "Ġaxis": 7960,
      "ĠGalileo": 7961,
      "ĠWikipedia": 7962,
      "ĠFerdinand": 7963,
      "Ġcategories": 7964,
      "Ġorbits": 7965,
      "Ġfirm": 7966,
      "Ġexercise": 7967,
      "Ġcriminal": 7968,
      "Ġinstitutions": 7969,
      "Ġnaturally": 7970,
      "Ġafraid": 7971,
      "Ġwidespread": 7972,
      "%,": 7973,
      "Can": 7974,
      "Des": 7975,
      "Qu": 7976,
      "Two": 7977,
      "but": 7978,
      "city": 7979,
      "oen": 7980,
      "£o": 7981,
      "hero": 7982,
      "iner": 7983,
      "inction": 7984,
      "Ġsin": 7985,
      "Ġsciences": 7986,
      "Ġblow": 7987,
      "Ġanch": 7988,
      "Ġmild": 7989,
      "Ġmines": 7990,
      "Ġfict": 7991,
      "Ġink": 7992,
      "ashed": 7993,
      "leum": 7994,
      "Ġdiabetes": 7995,
      "aming": 7996,
      "ĠAI": 7997,
      "veland": 7998,
      "olera": 7999,
      "ĠCroatia": 8000,
      "opy": 8001,
      "oper": 8002,
      "Ġstim": 8003,
      "ĠHo": 8004,
      "ĠHospital": 8005,
      "ĠHobbes": 8006,
      "ĠPur": 8007,
      "ersh": 8008,
      "ĠGDP": 8009,
      "ĠRel": 8010,
      "ĠNear": 8011,
      "ĠDol": 8012,
      "ĠDie": 8013,
      "ĠJac": 8014,
      "Ġvapor": 8015,
      "aki": 8016,
      "oca": 8017,
      "oking": 8018,
      "Ġclimb": 8019,
      "âĢ¢": 8020,
      "ricane": 8021,
      "Ġdrummer": 8022,
      "arsh": 8023,
      "Ġapply": 8024,
      "Ġ43": 8025,
      "Ġcreates": 8026,
      "Ġflavor": 8027,
      "ĠLeg": 8028,
      "Ġinfl": 8029,
      "Ġinterpre": 8030,
      "Ġfarther": 8031,
      "Ġproducing": 8032,
      "Ġlegend": 8033,
      "ventually": 8034,
      "Ġeconomics": 8035,
      "ĠBruce": 8036,
      "Ġhandle": 8037,
      "ĠCanal": 8038,
      "aughters": 8039,
      "ospitals": 8040,
      "Ġemph": 8041,
      "Ġpointed": 8042,
      "Ġfactor": 8043,
      "ipping": 8044,
      "Ġvalley": 8045,
      "Ġdesigns": 8046,
      "Ġbreast": 8047,
      "Ġinfluences": 8048,
      "Ġ1928": 8049,
      "Ġcheap": 8050,
      "Ġaffects": 8051,
      "Ġmarine": 8052,
      "ĠSecurity": 8053,
      "Ġidentify": 8054,
      "Ġbreaks": 8055,
      "Ġguitarist": 8056,
      "Ġopposition": 8057,
      "Ġvacuum": 8058,
      "Ġinstall": 8059,
      "Ġprofessor": 8060,
      "Ġprofession": 8061,
      "Ġgraphics": 8062,
      "ĠSlav": 8063,
      "Ġkingdoms": 8064,
      "Ġabortions": 8065,
      "hetamine": 8066,
      "Ġdocuments": 8067,
      "ĠGreenland": 8068,
      "Ġdetermined": 8069,
      "Ġheavily": 8070,
      "Ġcommunicate": 8071,
      "Ġsuffered": 8072,
      "ĠiP": 8073,
      "Ġwebsites": 8074,
      "glas": 8075,
      "Ġmelting": 8076,
      "ĠConfederate": 8077,
      "ĠEconom": 8078,
      "rocod": 8079,
      "Ġremembered": 8080,
      "ĠãĦ": 8081,
      "Ġstruggle": 8082,
      "ĠJefferson": 8083,
      "European": 8084,
      "allel": 8085,
      "42": 8086,
      "44": 8087,
      "54": 8088,
      "78": 8089,
      "Go": 8090,
      "My": 8091,
      "NU": 8092,
      "ders": 8093,
      "equ": 8094,
      "person": 8095,
      "sk": 8096,
      "zo": 8097,
      "Ã£o": 8098,
      "Ġtort": 8099,
      "Ġtank": 8100,
      "Ġsaus": 8101,
      "Ġwider": 8102,
      "Ġce": 8103,
      "Ġcuis": 8104,
      "Ġbud": 8105,
      "org": 8106,
      "orhood": 8107,
      "Ġpan": 8108,
      "Ġpets": 8109,
      "Ġinput": 8110,
      "Ġintens": 8111,
      "ĠTennessee": 8112,
      "Ġlie": 8113,
      "Ġloud": 8114,
      "Ġlesb": 8115,
      "Ġnor": 8116,
      "Ġnose": 8117,
      "illy": 8118,
      "ĠSel": 8119,
      "ĠSailor": 8120,
      "Ġreview": 8121,
      "owa": 8122,
      "ĠCelsius": 8123,
      "Ġstock": 8124,
      "elly": 8125,
      "ĠHon": 8126,
      "andon": 8127,
      "Ġrates": 8128,
      "Ġrays": 8129,
      "ĠForm": 8130,
      "Ġ1919": 8131,
      "estine": 8132,
      "ĠLes": 8133,
      "ĠLew": 8134,
      "ĠLittle": 8135,
      "ĠDown": 8136,
      "iva": 8137,
      "Ġconce": 8138,
      "ĠInt": 8139,
      "ĠKubrick": 8140,
      "Ġcomponents": 8141,
      "ĠVin": 8142,
      "ĠVeg": 8143,
      "Ġforming": 8144,
      "Ġroot": 8145,
      "ĠAlgeria": 8146,
      "Ġnumerous": 8147,
      "Ġfounding": 8148,
      "Ġdespite": 8149,
      "Ġbelt": 8150,
      "Ġimportance": 8151,
      "Ġparad": 8152,
      "Ġgenus": 8153,
      "Ġwarfare": 8154,
      "Ġinfections": 8155,
      "ĠPrincip": 8156,
      "Ġdepth": 8157,
      "Ġdepos": 8158,
      "ĠGreater": 8159,
      "iques": 8160,
      "Ġreality": 8161,
      "Ġperiodic": 8162,
      "Ġ1937": 8163,
      "Ġscientist": 8164,
      "Ġanthem": 8165,
      "Ġbreaking": 8166,
      "Ġconnects": 8167,
      "ĠByzant": 8168,
      "Ġlimits": 8169,
      "Ġdiscip": 8170,
      "Ġmeasurements": 8171,
      "Ġinteresting": 8172,
      "Ġbroadc": 8173,
      "ĠMilky": 8174,
      "Ġreaching": 8175,
      "orbache": 8176,
      "ĠJean": 8177,
      "ĠHungarian": 8178,
      "Ġminority": 8179,
      "British": 8180,
      "Ġdollar": 8181,
      "Ġresistance": 8182,
      "smith": 8183,
      "Ġdescend": 8184,
      "Ġadjective": 8185,
      "ĠMunich": 8186,
      "Ġrectang": 8187,
      "ladimir": 8188,
      "ĠDakota": 8189,
      "orbachev": 8190,
      "58": 8191,
      "But": 8192,
      "Different": 8193,
      "Hung": 8194,
      "Mary": 8195,
      "TML": 8196,
      "pson": 8197,
      "vo": 8198,
      "vador": 8199,
      "inals": 8200,
      "reation": 8201,
      "Ġwire": 8202,
      "esis": 8203,
      "Ġbonsai": 8204,
      "Ġmir": 8205,
      "Ġdoll": 8206,
      "Ġbeans": 8207,
      "stream": 8208,
      "adays": 8209,
      "lymouth": 8210,
      "ĠCur": 8211,
      "irming": 8212,
      "ĠMend": 8213,
      "Ġalk": 8214,
      "ĠHay": 8215,
      "ĠHun": 8216,
      "ĠEston": 8217,
      "employ": 8218,
      "Ġrandom": 8219,
      "ĠRod": 8220,
      "ĠRNA": 8221,
      "ĠNelson": 8222,
      "ĠDetroit": 8223,
      "artment": 8224,
      "Ġplot": 8225,
      "anga": 8226,
      "ĠHead": 8227,
      "ĠUntil": 8228,
      "ĠVice": 8229,
      "aching": 8230,
      "Ġdiscrim": 8231,
      "Ġcontained": 8232,
      "Ġcontaining": 8233,
      "Ġupd": 8234,
      "lower": 8235,
      "ĠAlaska": 8236,
      "ĠArmen": 8237,
      "Ġquart": 8238,
      "ologies": 8239,
      "rowing": 8240,
      "Ġanymore": 8241,
      "Ġlandsc": 8242,
      "Ġ75": 8243,
      "Ġmatches": 8244,
      "Ġpoliticians": 8245,
      "Ġ800": 8246,
      "archy": 8247,
      "Ġ1957": 8248,
      "ĠOrig": 8249,
      "ĠTruman": 8250,
      "Ġsword": 8251,
      "Ġdistingu": 8252,
      "Ġcorpor": 8253,
      "Ġdetails": 8254,
      "ĠMedical": 8255,
      "ambling": 8256,
      "Ġhistoric": 8257,
      "Ġpromot": 8258,
      "Ġidentified": 8259,
      "Ġexperienced": 8260,
      "ĠHindus": 8261,
      "Ġfrequently": 8262,
      "Ġteachings": 8263,
      "Ġfacts": 8264,
      "ĠRoger": 8265,
      "Ġrevol": 8266,
      "Ġconcerts": 8267,
      "ĠEcuador": 8268,
      "bourg": 8269,
      "Ġjournal": 8270,
      "Ġmoral": 8271,
      "Ġinherit": 8272,
      "enhower": 8273,
      "Ġsettlement": 8274,
      "Ġdimensions": 8275,
      "ĠSyria": 8276,
      "Ġhorizont": 8277,
      "Ġrhythm": 8278,
      "Ġprefectures": 8279,
      "Ġconcentration": 8280,
      "Ġbehaviour": 8281,
      "Ġathletes": 8282,
      "Ġdestruction": 8283,
      "Ġgrammar": 8284,
      "Ġingredients": 8285,
      "Ġphenomen": 8286,
      "Ġreptiles": 8287,
      "irmingham": 8288,
      "46": 8289,
      "DC": 8290,
      "GB": 8291,
      "Im": 8292,
      "TP": 8293,
      "US": 8294,
      "VI": 8295,
      "fred": 8296,
      "iy": 8297,
      "law": 8298,
      "uels": 8299,
      "wana": 8300,
      "Ġaid": 8301,
      "Ġcod": 8302,
      "onaut": 8303,
      "atoes": 8304,
      "ening": 8305,
      "Ġbow": 8306,
      "ito": 8307,
      "Ġmouse": 8308,
      "Ġpyram": 8309,
      "Ġfestival": 8310,
      "ĠTasman": 8311,
      "Ġnone": 8312,
      "Ġnavy": 8313,
      "Ġnurs": 8314,
      "ĠSony": 8315,
      "Ġeighth": 8316,
      "roll": 8317,
      "owers": 8318,
      "ĠCare": 8319,
      "ĠCape": 8320,
      "iring": 8321,
      "ĠMr": 8322,
      "ĠMuch": 8323,
      "Ġorchestr": 8324,
      "keep": 8325,
      "apton": 8326,
      "ĠForest": 8327,
      "ĠFrodo": 8328,
      "Ġ1910": 8329,
      "ĠLi": 8330,
      "ĠLight": 8331,
      "ĠLower": 8332,
      "ighters": 8333,
      "Ġkick": 8334,
      "aby": 8335,
      "Ġseed": 8336,
      "ocal": 8337,
      "ĠThames": 8338,
      "ĠKo": 8339,
      "oklyn": 8340,
      "Ġallies": 8341,
      "Ġpartner": 8342,
      "ĠVancouver": 8343,
      "amphetamine": 8344,
      "Ġneur": 8345,
      "Ġweigh": 8346,
      "Ġrod": 8347,
      "Ġcentimet": 8348,
      "obile": 8349,
      "Ġreco": 8350,
      "Ġcapac": 8351,
      "ohydr": 8352,
      "Ġgenetics": 8353,
      "Ġamb": 8354,
      "Ġsubd": 8355,
      "ĠPrincess": 8356,
      "Ġsingers": 8357,
      "venue": 8358,
      "Ġ99": 8359,
      "ĠZimbabwe": 8360,
      "Ġtemporary": 8361,
      "Ġ1955": 8362,
      "ĠConn": 8363,
      "ĠConvention": 8364,
      "Ġoccas": 8365,
      "Ġ1932": 8366,
      "boards": 8367,
      "Ġcoastline": 8368,
      "helm": 8369,
      "Ġengineer": 8370,
      "ĠHolland": 8371,
      "uxem": 8372,
      "Ġ1890": 8373,
      "Ġargument": 8374,
      "Ġvaccine": 8375,
      "ĠUkrainian": 8376,
      "Ġfleet": 8377,
      "Ġtissues": 8378,
      "ĠUnderground": 8379,
      "ĠDevon": 8380,
      "ĠDemocrat": 8381,
      "ĠAztecs": 8382,
      "Ġancestors": 8383,
      "Ġpunishment": 8384,
      "ĠMargaret": 8385,
      "Ġintelligence": 8386,
      "ĠKuwait": 8387,
      "ĠLisa": 8388,
      "ĠNemo": 8389,
      "ĠSudan": 8390,
      "Ġfictional": 8391,
      "62": 8392,
      "73": 8393,
      "98": 8394,
      "DL": 8395,
      "Each": 8396,
      "French": 8397,
      "German": 8398,
      "IP": 8399,
      "Jan": 8400,
      "Japan": 8401,
      "Mor": 8402,
      "Met": 8403,
      "Robert": 8404,
      "Soc": 8405,
      "bac": 8406,
      "contin": 8407,
      "eo": 8408,
      "fast": 8409,
      "tto": 8410,
      "tons": 8411,
      "inem": 8412,
      "erre": 8413,
      "Ġow": 8414,
      "Ġsight": 8415,
      "Ġsends": 8416,
      "Ġsending": 8417,
      "Ġcert": 8418,
      "esium": 8419,
      "alo": 8420,
      "Ġflex": 8421,
      "Ġfuels": 8422,
      "Ġinform": 8423,
      "lem": 8424,
      "Ġhospitals": 8425,
      "Ġdaughters": 8426,
      "Ġnerv": 8427,
      "Ġnerves": 8428,
      "Ġbees": 8429,
      "Ġgather": 8430,
      "ĠIV": 8431,
      "iment": 8432,
      "ĠCart": 8433,
      "Ġ\"-": 8434,
      "opl": 8435,
      "ayed": 8436,
      "ĠHong": 8437,
      "ĠHomer": 8438,
      "ĠEU": 8439,
      "ceans": 8440,
      "ags": 8441,
      "ĠGil": 8442,
      "Ġrid": 8443,
      "tries": 8444,
      "ĠFI": 8445,
      "ĠNet": 8446,
      "iller": 8447,
      "ĠDer": 8448,
      "Ġcomics": 8449,
      "istory": 8450,
      "Ġchief": 8451,
      "ĠUE": 8452,
      "Ġexport": 8453,
      "Ġexchange": 8454,
      "ocy": 8455,
      "Ġcounter": 8456,
      "Ġalloy": 8457,
      "ĠVenezuel": 8458,
      "uces": 8459,
      "Ġimperial": 8460,
      "Ġdisput": 8461,
      "Ġagents": 8462,
      "Ġdriving": 8463,
      "Ġphone": 8464,
      "Ġanywhere": 8465,
      "Ġbrand": 8466,
      "Ġcarb": 8467,
      "Ġregime": 8468,
      "ustrial": 8469,
      "Ġ65": 8470,
      "Ġaccused": 8471,
      "Ġcrus": 8472,
      "Ġofficer": 8473,
      "Ġauth": 8474,
      "Ġmeasuring": 8475,
      "ĠCommission": 8476,
      "Ġdistant": 8477,
      "Ġrespond": 8478,
      "Ġpossibly": 8479,
      "Ġrefle": 8480,
      "ourses": 8481,
      "ĠMedia": 8482,
      "Ġ1921": 8483,
      "Ġspeeds": 8484,
      "Ġtitled": 8485,
      "Arab": 8486,
      "Ã¼ssel": 8487,
      "Ġgeography": 8488,
      "Ġphotograph": 8489,
      "ĠNevada": 8490,
      "def": 8491,
      "Ġfastest": 8492,
      "Ġdrawn": 8493,
      "ĠBooth": 8494,
      "Ġfocused": 8495,
      "Ġsteps": 8496,
      "ĠMadrid": 8497,
      "Ġpsychology": 8498,
      "Ġprinting": 8499,
      "Ġinjury": 8500,
      "Ġinjured": 8501,
      "ĠDespite": 8502,
      "Ġpoisonous": 8503,
      "Ġobservations": 8504,
      "orkshire": 8505,
      "Ġinherited": 8506,
      "Ġà¦": 8507,
      "Ġadvertising": 8508,
      "Ġelectro": 8509,
      "Ġroute": 8510,
      "Ġconverted": 8511,
      "ĠOrganization": 8512,
      "Ġcylinder": 8513,
      "Ġdedicated": 8514,
      "Billboard": 8515,
      "Ġfestivals": 8516,
      "Ġequivalent": 8517,
      "Ġvideos": 8518,
      "ĠVegas": 8519,
      "Ã¼sseld": 8520,
      "41": 8521,
      "Austr": 8522,
      "Cola": 8523,
      "Great": 8524,
      "Man": 8525,
      "May": 8526,
      "Per": 8527,
      "Par": 8528,
      "SO": 8529,
      "TA": 8530,
      "case": 8531,
      "furt": 8532,
      "test": 8533,
      "vant": 8534,
      "zig": 8535,
      "Ġ/": 8536,
      "Ġtect": 8537,
      "inity": 8538,
      "Ġske": 8539,
      "Ġsaved": 8540,
      "Ġwound": 8541,
      "Ġcash": 8542,
      "athe": 8543,
      "enge": 8544,
      "Ġfaces": 8545,
      "Ġfreed": 8546,
      "asp": 8547,
      "Ġhockey": 8548,
      "Ġnest": 8549,
      "ĠSuf": 8550,
      "rooms": 8551,
      "ademic": 8552,
      "ĠMajor": 8553,
      "Ġforg": 8554,
      "ĠHistor": 8555,
      "Ġash": 8556,
      "ĠPower": 8557,
      "Ġheir": 8558,
      "ĠWalt": 8559,
      "ĠRub": 8560,
      "Ġ1912": 8561,
      "ĠLas": 8562,
      "ĠLow": 8563,
      "Ġnotice": 8564,
      "ĠJon": 8565,
      "Ġchair": 8566,
      "Ġseats": 8567,
      "Ġabdom": 8568,
      "ĠKarl": 8569,
      "ipitation": 8570,
      "oga": 8571,
      "ĠChildren": 8572,
      "avid": 8573,
      "asses": 8574,
      "actic": 8575,
      "Ġworker": 8576,
      "Ġadj": 8577,
      "ulture": 8578,
      "Ġmush": 8579,
      "ugs": 8580,
      "Ġprem": 8581,
      "Ġresc": 8582,
      "Ġserf": 8583,
      "Ġqual": 8584,
      "ĠYorkshire": 8585,
      "Ġamino": 8586,
      "Ġregister": 8587,
      "ikes": 8588,
      "pring": 8589,
      "prus": 8590,
      "Ġ1500": 8591,
      "Ġkills": 8592,
      "anna": 8593,
      "ledon": 8594,
      "ĠRepublicans": 8595,
      "Ġtradem": 8596,
      "ĠPresidential": 8597,
      "Ġmeasures": 8598,
      "Ġwinner": 8599,
      "Ġyoungest": 8600,
      "ĠCommit": 8601,
      "Ġserving": 8602,
      "Ġzones": 8603,
      "century": 8604,
      "Ġtwin": 8605,
      "Ġtravels": 8606,
      "Ġtreatments": 8607,
      "Ġinfluential": 8608,
      "Ġpeak": 8609,
      "ĠGoogle": 8610,
      "Ġfalling": 8611,
      "Ġparent": 8612,
      "ĠEssen": 8613,
      "ĠGlobe": 8614,
      "Ġdanger": 8615,
      "ĠCommunity": 8616,
      "Ġdetermine": 8617,
      "ĠSalvador": 8618,
      "ĠPeace": 8619,
      "Ġcriticized": 8620,
      "ĠKhan": 8621,
      "imbledon": 8622,
      "Ġjourney": 8623,
      "ĠFirefox": 8624,
      "ĠCleveland": 8625,
      "Ġmomentum": 8626,
      "ESCO": 8627,
      "itnesses": 8628,
      "Ġgraduated": 8629,
      "Ġhemisphere": 8630,
      "Ġancestry": 8631,
      "Ġtriangle": 8632,
      "George": 8633,
      "Ġempty": 8634,
      "ĠMustang": 8635,
      "ĠDouglas": 8636,
      "Ġcollapsed": 8637,
      "ĠEisenhower": 8638,
      "Ġsituations": 8639,
      "Ġmaximum": 8640,
      "ĠUEFA": 8641,
      "Ġauthors": 8642,
      "31": 8643,
      "Cr": 8644,
      "Hind": 8645,
      "OM": 8646,
      "Old": 8647,
      "Russ": 8648,
      "TC": 8649,
      "Water": 8650,
      "fix": 8651,
      "hall": 8652,
      "hard": 8653,
      "pill": 8654,
      "power": 8655,
      "prod": 8656,
      "ype": 8657,
      "Ġawards": 8658,
      "inoc": 8659,
      "Ġsale": 8660,
      "Ġwool": 8661,
      "Ġcere": 8662,
      "eding": 8663,
      "orters": 8664,
      "itis": 8665,
      "Ġpap": 8666,
      "Ġfasc": 8667,
      "ouch": 8668,
      "Ġdictionary": 8669,
      "Ġisol": 8670,
      "ĠTel": 8671,
      "ĠTaylor": 8672,
      "usually": 8673,
      "Ġbeef": 8674,
      "amas": 8675,
      "Ġeuro": 8676,
      "Ġgro": 8677,
      "Ġgerm": 8678,
      "Ġgross": 8679,
      "Ġghost": 8680,
      "olith": 8681,
      "adel": 8682,
      "aders": 8683,
      "Ġwashing": 8684,
      "opotam": 8685,
      "ĠMao": 8686,
      "urre": 8687,
      "igs": 8688,
      "igious": 8689,
      "Ġstrict": 8690,
      "ĠBa": 8691,
      "Ġassembly": 8692,
      "ĠPit": 8693,
      "ĠGir": 8694,
      "Ġraw": 8695,
      "ĠWoman": 8696,
      "ĠLar": 8697,
      "ĠLine": 8698,
      "ĠLoren": 8699,
      "Ġcomets": 8700,
      "Ġconstit": 8701,
      "Ġconvert": 8702,
      "ĠJerusalem": 8703,
      "Ġplains": 8704,
      "udes": 8705,
      "Ġvul": 8706,
      "Ġvision": 8707,
      "ĠOd": 8708,
      "Ġseventh": 8709,
      "Ġotherwise": 8710,
      "ĠThrough": 8711,
      "iph": 8712,
      "ĠStadium": 8713,
      "cling": 8714,
      "Internet": 8715,
      "Ġgrave": 8716,
      "ĠVery": 8717,
      "Ġjail": 8718,
      "Ġpromin": 8719,
      "ometers": 8720,
      "ensed": 8721,
      "Ġ49": 8722,
      "Ġcarries": 8723,
      "Ġpowered": 8724,
      "ĠShel": 8725,
      "Ġ170": 8726,
      "ucture": 8727,
      "Ġslang": 8728,
      "ĠShort": 8729,
      "ĠBeach": 8730,
      "ĠBeijing": 8731,
      "Ġputs": 8732,
      "icester": 8733,
      "Ġdirections": 8734,
      "Ġefforts": 8735,
      "electric": 8736,
      "gests": 8737,
      "Ġrealized": 8738,
      "Ġoperation": 8739,
      "ĠAdv": 8740,
      "ĠEducation": 8741,
      "Ġphilosoph": 8742,
      "Ġerection": 8743,
      "ĠCharl": 8744,
      "Ġmarks": 8745,
      "Ġweapon": 8746,
      "Ġ1860": 8747,
      "Ġmagic": 8748,
      "Ġdemand": 8749,
      "Ġmeetings": 8750,
      "ĠSmall": 8751,
      "United": 8752,
      "Ġwearing": 8753,
      "Ġcathedral": 8754,
      "Ġdomain": 8755,
      "Ġcontainer": 8756,
      "Ġselected": 8757,
      "Ġcartoons": 8758,
      "Ġhearing": 8759,
      "Ġattempted": 8760,
      "Reagan": 8761,
      "Ġfundamental": 8762,
      "ĠRegion": 8763,
      "General": 8764,
      "Ġprepared": 8765,
      "Ġdisagree": 8766,
      "Ġrepeated": 8767,
      "uberty": 8768,
      "Ġplatform": 8769,
      "ĠConserv": 8770,
      "Ġmathematician": 8771,
      "ĠSanta": 8772,
      "ĠWalter": 8773,
      "ĠKenya": 8774,
      "Ġexplanation": 8775,
      "Ġadvantage": 8776,
      "Ġoccasionally": 8777,
      "Ã¼sseldorf": 8778,
      "32": 8779,
      "75": 8780,
      "95": 8781,
      "?\"": 8782,
      "Bob": 8783,
      "DR": 8784,
      "IX": 8785,
      "Mad": 8786,
      "Sm": 8787,
      "gart": 8788,
      "ktop": 8789,
      "oj": 8790,
      "tained": 8791,
      "Ã§": 8792,
      "Ġturtles": 8793,
      "inism": 8794,
      "Ġwait": 8795,
      "Ġwolves": 8796,
      "alian": 8797,
      "Ġpuberty": 8798,
      "icut": 8799,
      "Ġhollow": 8800,
      "ĠTs": 8801,
      "ĠTu": 8802,
      "Ġlip": 8803,
      "Ġthirteen": 8804,
      "ilia": 8805,
      "ĠSk": 8806,
      "ĠAh": 8807,
      "olini": 8808,
      "ĠIdo": 8809,
      "ĠIowa": 8810,
      "Ġreun": 8811,
      "idal": 8812,
      "idel": 8813,
      "ĠCaptain": 8814,
      "urai": 8815,
      "Ġalt": 8816,
      "ĠHarb": 8817,
      "ĠBul": 8818,
      "ĠBros": 8819,
      "ĠBorough": 8820,
      "ĠGorbachev": 8821,
      "trans": 8822,
      "ĠNile": 8823,
      "ĠNancy": 8824,
      "ĠLu": 8825,
      "Ġcanc": 8826,
      "Ġcanal": 8827,
      "Ġplague": 8828,
      "abul": 8829,
      "Ġdeals": 8830,
      "ĠKn": 8831,
      "ousing": 8832,
      "Ġarmed": 8833,
      "ibn": 8834,
      "Ġdispl": 8835,
      "Ġdishes": 8836,
      "Ġdisorders": 8837,
      "Ġenzymes": 8838,
      "Ġju": 8839,
      "peare": 8840,
      "Ġeleven": 8841,
      "Ġoutput": 8842,
      "Ġpopulous": 8843,
      "Ġcountryside": 8844,
      "Ġblues": 8845,
      "ĠFri": 8846,
      "Ġmetall": 8847,
      "Ġserver": 8848,
      "Ġoffs": 8849,
      "phins": 8850,
      "akespeare": 8851,
      "ologne": 8852,
      "Ġdescent": 8853,
      "Ġparallel": 8854,
      "oolidge": 8855,
      "Ġplanes": 8856,
      "apping": 8857,
      "Ġmonaster": 8858,
      "Ġreleases": 8859,
      "ĠIsles": 8860,
      "ĠLeban": 8861,
      "Ġlawyer": 8862,
      "ĠChristopher": 8863,
      "pron": 8864,
      "Ġtransition": 8865,
      "Ġexponent": 8866,
      "Ġexpansion": 8867,
      "Ġsoldier": 8868,
      "atinum": 8869,
      "Ã©e": 8870,
      "Three": 8871,
      "Ġcopied": 8872,
      "ĠPhoen": 8873,
      "meaning": 8874,
      "Ġcorrupt": 8875,
      "ĠAnglo": 8876,
      "Ġsuggests": 8877,
      "ĠBCE": 8878,
      "Ġvertebrates": 8879,
      "ĠRomance": 8880,
      "ĠRommel": 8881,
      "Ġmulti": 8882,
      "ĠMonke": 8883,
      "Ġrequires": 8884,
      "Ġangels": 8885,
      "Ġkilogr": 8886,
      "Ġethics": 8887,
      "Ġvolcanic": 8888,
      "Ġgraphite": 8889,
      "What": 8890,
      "Ġspecifically": 8891,
      "Ġthinks": 8892,
      "Ġbelongs": 8893,
      "Ġmechanical": 8894,
      "ĠSenator": 8895,
      "Ġconstructed": 8896,
      "Ġpronunci": 8897,
      "Ġnomination": 8898,
      "Ġconcrete": 8899,
      "Ġreproduction": 8900,
      "Ġreproduce": 8901,
      "Ġhormone": 8902,
      "Ġblindness": 8903,
      "ĠBabyl": 8904,
      "Ġmerch": 8905,
      "Ġsimpler": 8906,
      "ĠDepartment": 8907,
      "ĠEverton": 8908,
      "Ġrubber": 8909,
      "Using": 8910,
      "Ġsacred": 8911,
      "Ġencouraged": 8912,
      "Ġhammer": 8913,
      "Ġacceler": 8914,
      "ĠOffice": 8915,
      "Ġchromosomes": 8916,
      "ĠRadio": 8917,
      "Ġmetaphor": 8918,
      "Ġcannabis": 8919,
      "Ġmanagement": 8920,
      "ĠLaozi": 8921,
      "Ġresearchers": 8922,
      "ĠMonday": 8923,
      "ĠFoundation": 8924,
      "ishnu": 8925,
      "Ġcuisine": 8926,
      "ĠCommittee": 8927,
      ".âĢĿ": 8928,
      "Carter": 8929,
      "La": 8930,
      "London": 8931,
      "Sax": 8932,
      "cons": 8933,
      "eenth": 8934,
      "fess": 8935,
      "free": 8936,
      "fire": 8937,
      "fri": 8938,
      "gers": 8939,
      "sup": 8940,
      "sometimes": 8941,
      "uin": 8942,
      "vy": 8943,
      "van": 8944,
      "âĨ": 8945,
      "Ġtons": 8946,
      "Ġol": 8947,
      "Ġwish": 8948,
      "Ġwore": 8949,
      "Ġcas": 8950,
      "Ġbisexual": 8951,
      "Ġmile": 8952,
      "ĠpH": 8953,
      "Ġports": 8954,
      "Ġinaug": 8955,
      "ication": 8956,
      "Ġhatch": 8957,
      "ĠTogether": 8958,
      "Ġloyal": 8959,
      "Ġlinks": 8960,
      "Ġlighter": 8961,
      "Ġbee": 8962,
      "ĠSpe": 8963,
      "sticks": 8964,
      "idae": 8965,
      "ira": 8966,
      "Ġstorm": 8967,
      "Ġalle": 8968,
      "ĠBav": 8969,
      "this": 8970,
      "Ġorange": 8971,
      "ĠEventually": 8972,
      "ĠPa": 8973,
      "iests": 8974,
      "seas": 8975,
      "Ġride": 8976,
      "apart": 8977,
      "ods": 8978,
      "ĠRus": 8979,
      "ĠFather": 8980,
      "artney": 8981,
      "Ġworst": 8982,
      "ĠJoe": 8983,
      "Ġchap": 8984,
      "ĠOpen": 8985,
      "ortun": 8986,
      "Ġunemploy": 8987,
      "upted": 8988,
      "izo": 8989,
      "ĠVers": 8990,
      "lesh": 8991,
      "Ġsmoke": 8992,
      "Ġcolder": 8993,
      "hedr": 8994,
      "ĠArkansas": 8995,
      "Ġpersonality": 8996,
      "Ġwhereas": 8997,
      "ĠFront": 8998,
      "Ġphones": 8999,
      "ysical": 9000,
      "Ġdecline": 9001,
      "inking": 9002,
      "Ġ51": 9003,
      "Ġ55": 9004,
      "iversal": 9005,
      "ertile": 9006,
      "ĠIndians": 9007,
      "Ġcharts": 9008,
      "Ġinfected": 9009,
      "Ġinterview": 9010,
      "Ġrepublics": 9011,
      "Ġdivisions": 9012,
      "anner": 9013,
      "ĠWho": 9014,
      "Ġrocket": 9015,
      "Ġpasses": 9016,
      "ĠDeep": 9017,
      "Ġpossess": 9018,
      "Ġperforming": 9019,
      "Ġvoting": 9020,
      "Ġbreasts": 9021,
      "Ġcircul": 9022,
      "Ġstatues": 9023,
      "lication": 9024,
      "Ġtraditionally": 9025,
      "Ġradioactive": 9026,
      "Ġ1865": 9027,
      "Ġapproach": 9028,
      "Ġcreative": 9029,
      "Ġcreatures": 9030,
      "ĠHarold": 9031,
      "ypus": 9032,
      "ĠMilan": 9033,
      "Ġexecution": 9034,
      "Ġoceanic": 9035,
      "Ġheaven": 9036,
      "Ġheavier": 9037,
      "Ġdeliver": 9038,
      "ĠLaos": 9039,
      "Ġfault": 9040,
      "ĠAgain": 9041,
      "Ġdictator": 9042,
      "ĠCatal": 9043,
      "ĠDaniel": 9044,
      "Ġachieved": 9045,
      "rigation": 9046,
      "Ġbreeding": 9047,
      "Ġisotope": 9048,
      "ĠDoctors": 9049,
      "Ġà°": 9050,
      "Ġpalace": 9051,
      "ĠFilm": 9052,
      "Ġoxidation": 9053,
      "ĠKentucky": 9054,
      "Ġuterus": 9055,
      "Ġchalleng": 9056,
      "Ġrecommended": 9057,
      "Ġsatellite": 9058,
      "ĠNorwegian": 9059,
      "Ġheterosexual": 9060,
      "ershwin": 9061,
      "Ġemphas": 9062,
      "Ġbudget": 9063,
      "Ġnervous": 9064,
      "Ġelectroly": 9065,
      "June": 9066,
      "Min": 9067,
      "October": 9068,
      "Ser": 9069,
      "Several": 9070,
      "ev": 9071,
      "hov": 9072,
      "know": 9073,
      "mat": 9074,
      "number": 9075,
      "py": 9076,
      "tropical": 9077,
      "when": 9078,
      "ĠÂ": 9079,
      "Ġtanks": 9080,
      "anium": 9081,
      "Ġwel": 9082,
      "Ġca": 9083,
      "Ġcourses": 9084,
      "atics": 9085,
      "Ġbor": 9086,
      "Ġfift": 9087,
      "Ġintern": 9088,
      "omo": 9089,
      "Ġhip": 9090,
      "Ġhide": 9091,
      "Ġdish": 9092,
      "ĠTechn": 9093,
      "Ġlady": 9094,
      "Ġbear": 9095,
      "adow": 9096,
      "irit": 9097,
      "ĠHamp": 9098,
      "ulin": 9099,
      "Ġitem": 9100,
      "ĠPokÃ©mon": 9101,
      "ifies": 9102,
      "ifying": 9103,
      "Ġheated": 9104,
      "agen": 9105,
      "agle": 9106,
      "ĠGarden": 9107,
      "apital": 9108,
      "ĠWord": 9109,
      "ĠRain": 9110,
      "ĠFive": 9111,
      "Ġ1911": 9112,
      "esty": 9113,
      "ĠNichol": 9114,
      "ĠLaden": 9115,
      "Ġnoted": 9116,
      "iah": 9117,
      "Ġvia": 9118,
      "ellor": 9119,
      "ĠHealth": 9120,
      "aterpill": 9121,
      "uclear": 9122,
      "Ġcontext": 9123,
      "Ġcommission": 9124,
      "Ġ34": 9125,
      "neum": 9126,
      "neys": 9127,
      "ublin": 9128,
      "Ġrelax": 9129,
      "Ġrelatives": 9130,
      "Ġblocks": 9131,
      "ĠFried": 9132,
      "Ġresign": 9133,
      "Ġmetric": 9134,
      "Ġoffers": 9135,
      "Ġstrike": 9136,
      "Ġquarter": 9137,
      "Ġphase": 9138,
      "Ġgrouped": 9139,
      "Ġ42": 9140,
      "Ġdecimal": 9141,
      "Ġbrings": 9142,
      "hemistry": 9143,
      "strong": 9144,
      "iversary": 9145,
      "ĠAsh": 9146,
      "oyd": 9147,
      "ussolini": 9148,
      "Ġcapitalist": 9149,
      "Ġaccounts": 9150,
      "Ġdefine": 9151,
      "Ġslope": 9152,
      "ĠShakespeare": 9153,
      "Ġorganisation": 9154,
      "Ġ1600": 9155,
      "Ġ1951": 9156,
      "Ġlegally": 9157,
      "ĠConstant": 9158,
      "Ã©t": 9159,
      "plement": 9160,
      "Ġshortened": 9161,
      "Ġwinters": 9162,
      "traction": 9163,
      "Ġrespiration": 9164,
      "Ġgenerations": 9165,
      "ĠCentury": 9166,
      "Ġstatistics": 9167,
      "Ġ1923": 9168,
      "Ġ1924": 9169,
      "Ġconnections": 9170,
      "Ġtested": 9171,
      "Ġwooden": 9172,
      "Ġcutting": 9173,
      "Ġspreading": 9174,
      "Ġangles": 9175,
      "Ġdigits": 9176,
      "Ġarranged": 9177,
      "Ġexception": 9178,
      "ĠAtlanta": 9179,
      "Ġprimarily": 9180,
      "Ġepid": 9181,
      "ĠCountry": 9182,
      "Ġuniversal": 9183,
      "Ġgreenhouse": 9184,
      "Ġmosquit": 9185,
      "Ġpercentage": 9186,
      "Ġcircular": 9187,
      "Ġcollapse": 9188,
      "ĠReserve": 9189,
      "Ġkeyboard": 9190,
      "Ġselect": 9191,
      "Ġneighbour": 9192,
      "related": 9193,
      "ĠPatrick": 9194,
      "Ġdiagnosis": 9195,
      "Ġlifetime": 9196,
      "Britannica": 9197,
      "Ġepisodes": 9198,
      "Ġnoble": 9199,
      "Ġdiesel": 9200,
      "Ġdominant": 9201,
      "Ġprecipitation": 9202,
      "ĠLatvia": 9203,
      "ĠBilbo": 9204,
      "Ġphysicists": 9205,
      "Ġsuddenly": 9206,
      "olesterol": 9207,
      "61": 9208,
      "AD": 9209,
      "Af": 9210,
      "FL": 9211,
      "UV": 9212,
      "borough": 9213,
      "cm": 9214,
      "cts": 9215,
      "dy": 9216,
      "gae": 9217,
      "han": 9218,
      "iro": 9219,
      "ioc": 9220,
      "jo": 9221,
      "nost": 9222,
      "oice": 9223,
      "two": 9224,
      "uy": 9225,
      "uable": 9226,
      "ĠÐ": 9227,
      "Ġtennis": 9228,
      "Ġwins": 9229,
      "Ġcakes": 9230,
      "onial": 9231,
      "ednes": 9232,
      "Ġble": 9233,
      "Ġpink": 9234,
      "Ġfame": 9235,
      "Ġfetus": 9236,
      "Ġhorn": 9237,
      "Ġhobb": 9238,
      "Ġdances": 9239,
      "Ġlithium": 9240,
      "Ġthirty": 9241,
      "Ġbeach": 9242,
      "ambo": 9243,
      "ĠSnow": 9244,
      "Ġears": 9245,
      "ĠTheatre": 9246,
      "ĠIl": 9247,
      "ĠCook": 9248,
      "opper": 9249,
      "ĠMalt": 9250,
      "uten": 9251,
[...]
